{
  "version": "1.0",
  "truncation": null,
  "padding": null,
  "added_tokens": [
    {
      "id": 0,
      "content": "<OOV>",
      "single_word": false,
      "lstrip": false,
      "rstrip": false,
      "normalized": false,
      "special": true
    },
    {
      "id": 1,
      "content": "<s>",
      "single_word": false,
      "lstrip": false,
      "rstrip": false,
      "normalized": false,
      "special": true
    },
    {
      "id": 2,
      "content": "</s>",
      "single_word": false,
      "lstrip": false,
      "rstrip": false,
      "normalized": false,
      "special": true
    },
    {
      "id": 3,
      "content": "<PAD>",
      "single_word": false,
      "lstrip": false,
      "rstrip": false,
      "normalized": false,
      "special": true
    }
  ],
  "normalizer": null,
  "pre_tokenizer": {
    "type": "Whitespace"
  },
  "post_processor": null,
  "decoder": null,
  "model": {
    "type": "BPE",
    "dropout": null,
    "unk_token": "<OOV>",
    "continuing_subword_prefix": null,
    "end_of_word_suffix": null,
    "fuse_unk": false,
    "byte_fallback": false,
    "vocab": {
      "<OOV>": 0,
      "<s>": 1,
      "</s>": 2,
      "<PAD>": 3,
      "'": 4,
      "/": 5,
      "<": 6,
      ">": 7,
      "a": 8,
      "b": 9,
      "c": 10,
      "d": 11,
      "e": 12,
      "f": 13,
      "g": 14,
      "h": 15,
      "i": 16,
      "j": 17,
      "k": 18,
      "l": 19,
      "m": 20,
      "n": 21,
      "o": 22,
      "p": 23,
      "q": 24,
      "r": 25,
      "s": 26,
      "t": 27,
      "u": 28,
      "v": 29,
      "w": 30,
      "x": 31,
      "y": 32,
      "z": 33,
      "ç": 34,
      "ö": 35,
      "ü": 36,
      "ğ": 37,
      "ı": 38,
      "ş": 39,
      "ar": 40,
      "an": 41,
      "er": 42,
      "in": 43,
      "ın": 44,
      "en": 45,
      "ir": 46,
      "il": 47,
      "al": 48,
      "da": 49,
      "de": 50,
      "ak": 51,
      "ol": 52,
      "ya": 53,
      "ve": 54,
      "el": 55,
      "on": 56,
      "lar": 57,
      "ma": 58,
      "un": 59,
      "et": 60,
      "ek": 61,
      "ır": 62,
      "is": 63,
      "es": 64,
      "bir": 65,
      "ik": 66,
      "la": 67,
      "ler": 68,
      "ıl": 69,
      "or": 70,
      "as": 71,
      "ur": 72,
      "at": 73,
      "ul": 74,
      "ay": 75,
      "şt": 76,
      "le": 77,
      "di": 78,
      "ında": 79,
      "dı": 80,
      "ün": 81,
      "te": 82,
      "ta": 83,
      "ba": 84,
      "im": 85,
      "ür": 86,
      "iy": 87,
      "am": 88,
      "dan": 89,
      "lı": 90,
      "den": 91,
      "it": 92,
      "li": 93,
      "ka": 94,
      "inde": 95,
      "sa": 96,
      "ki": 97,
      "ey": 98,
      "lan": 99,
      "em": 100,
      "du": 101,
      "bu": 102,
      "dir": 103,
      "ön": 104,
      "dır": 105,
      "mı": 106,
      "tar": 107,
      "yıl": 108,
      "ör": 109,
      "ine": 110,
      "ra": 111,
      "ha": 112,
      "sı": 113,
      "arak": 114,
      "iş": 115,
      "iç": 116,
      "us": 117,
      "iz": 118,
      "ile": 119,
      "üz": 120,
      "son": 121,
      "ık": 122,
      "ti": 123,
      "ok": 124,
      "tan": 125,
      "baş": 126,
      "esi": 127,
      "ğı": 128,
      "ları": 129,
      "olarak": 130,
      "ük": 131,
      "ini": 132,
      "kar": 133,
      "ından": 134,
      "ro": 135,
      "yap": 136,
      "üm": 137,
      "ev": 138,
      "ed": 139,
      "mak": 140,
      "ül": 141,
      "um": 142,
      "ını": 143,
      "mi": 144,
      "ım": 145,
      "eri": 146,
      "bil": 147,
      "ez": 148,
      "oğ": 149,
      "inin": 150,
      "bul": 151,
      "st": 152,
      "leri": 153,
      "ştir": 154,
      "ına": 155,
      "öl": 156,
      "man": 157,
      "ış": 158,
      "ca": 159,
      "ce": 160,
      "ği": 161,
      "oy": 162,
      "</": 163,
      "gör": 164,
      "os": 165,
      "ştır": 166,
      "kı": 167,
      "mu": 168,
      "ken": 169,
      "ver": 170,
      "af": 171,
      "lik": 172,
      "gel": 173,
      "alar": 174,
      "için": 175,
      "tür": 176,
      "tı": 177,
      "yer": 178,
      "mek": 179,
      "lu": 180,
      "ge": 181,
      "yan": 182,
      "op": 183,
      "olan": 184,
      "ih": 185,
      "öz": 186,
      "ne": 187,
      "az": 188,
      "ının": 189,
      "iler": 190,
      "uz": 191,
      "gi": 192,
      "me": 193,
      "oldu": 194,
      "üy": 195,
      "ası": 196,
      "mıştır": 197,
      "ru": 198,
      "kur": 199,
      "par": 200,
      "len": 201,
      "taraf": 202,
      "kul": 203,
      "se": 204,
      "ad": 205,
      "yılında": 206,
      "ut": 207,
      "ci": 208,
      "bi": 209,
      "isi": 210,
      "gen": 211,
      "olu": 212,
      "asında": 213,
      "kon": 214,
      "yar": 215,
      "om": 216,
      "der": 217,
      "ması": 218,
      "eş": 219,
      "alı": 220,
      "tarafından": 221,
      "aş": 222,
      "bulun": 223,
      "çık": 224,
      "gün": 225,
      "hal": 226,
      "si": 227,
      "sonra": 228,
      "dü": 229,
      "cak": 230,
      "yon": 231,
      "tarih": 232,
      "cı": 233,
      "ilk": 234,
      "ter": 235,
      "ch": 236,
      "miştir": 237,
      "tak": 238,
      "dar": 239,
      "kan": 240,
      "lık": 241,
      "alan": 242,
      "cu": 243,
      "ilm": 244,
      "re": 245,
      "ip": 246,
      "öy": 247,
      "yla": 248,
      "san": 249,
      "tadır": 250,
      "yen": 251,
      "ab": 252,
      "daha": 253,
      "eler": 254,
      "böl": 255,
      "ist": 256,
      "ğu": 257,
      "mas": 258,
      "ot": 259,
      "türk": 260,
      "bel": 261,
      "nin": 262,
      "tem": 263,
      "men": 264,
      "kullan": 265,
      "yaz": 266,
      "doğ": 267,
      "inden": 268,
      "tr": 269,
      "çok": 270,
      "kal": 271,
      "ara": 272,
      "unda": 273,
      "dur": 274,
      "şı": 275,
      "tek": 276,
      "dev": 277,
      "nın": 278,
      "kat": 279,
      "ger": 280,
      "sür": 281,
      "dön": 282,
      "ayı": 283,
      "ların": 284,
      "üç": 285,
      "na": 286,
      "iye": 287,
      "yı": 288,
      "geç": 289,
      "ada": 290,
      "büy": 291,
      "var": 292,
      "maktadır": 293,
      "mü": 294,
      "mekte": 295,
      "şe": 296,
      "ri": 297,
      "ise": 298,
      "let": 299,
      "gö": 300,
      "ku": 301,
      "ştur": 302,
      "oyun": 303,
      "yön": 304,
      "mış": 305,
      "üzer": 306,
      "edil": 307,
      "su": 308,
      "ing": 309,
      "yaş": 310,
      "top": 311,
      "ağ": 312,
      "çek": 313,
      "erk": 314,
      "ayr": 315,
      "sel": 316,
      "bağ": 317,
      "he": 318,
      "sır": 319,
      "ılan": 320,
      "ili": 321,
      "unu": 322,
      "büyük": 323,
      "laş": 324,
      "mar": 325,
      "ko": 326,
      "av": 327,
      "pro": 328,
      "istan": 329,
      "sah": 330,
      "arasında": 331,
      "ran": 332,
      "iyle": 333,
      "sal": 334,
      "ye": 335,
      "dığı": 336,
      "har": 337,
      "yay": 338,
      "diğ": 339,
      "mektedir": 340,
      "aman": 341,
      "şeh": 342,
      "ayn": 343,
      "sav": 344,
      "be": 345,
      "met": 346,
      "ama": 347,
      "her": 348,
      "if": 349,
      "gibi": 350,
      "değ": 351,
      "han": 352,
      "bun": 353,
      "başla": 354,
      "esine": 355,
      "çal": 356,
      "ber": 357,
      "iki": 358,
      "eti": 359,
      "ap": 360,
      "yak": 361,
      "leş": 362,
      "arı": 363,
      "ov": 364,
      "dün": 365,
      "malar": 366,
      "dür": 367,
      "alt": 368,
      "ilen": 369,
      "yüz": 370,
      "yeni": 371,
      "eye": 372,
      "uy": 373,
      "por": 374,
      "şar": 375,
      "ah": 376,
      "ilç": 377,
      "zı": 378,
      "ser": 379,
      "zaman": 380,
      "lü": 381,
      "bilir": 382,
      "kadar": 383,
      "ordu": 384,
      "lerin": 385,
      "bat": 386,
      "ılı": 387,
      "rup": 388,
      "larında": 389,
      "çalış": 390,
      "ulu": 391,
      "adı": 392,
      "ren": 393,
      "for": 394,
      "esinde": 395,
      "bak": 396,
      "tur": 397,
      "yük": 398,
      "kaz": 399,
      "karşı": 400,
      "maya": 401,
      "bol": 402,
      "etti": 403,
      "iyon": 404,
      "köy": 405,
      "veya": 406,
      "kr": 407,
      "daki": 408,
      "ster": 409,
      "özel": 410,
      "yat": 411,
      "dönem": 412,
      "fa": 413,
      "genel": 414,
      "göre": 415,
      "sek": 416,
      "üt": 417,
      "ıldı": 418,
      "gir": 419,
      "merk": 420,
      "merkez": 421,
      "aç": 422,
      "takım": 423,
      "ten": 424,
      "muştur": 425,
      "lam": 426,
      "bas": 427,
      "eğ": 428,
      "amp": 429,
      "bur": 430,
      "liği": 431,
      "miş": 432,
      "mo": 433,
      "film": 434,
      "bo": 435,
      "dünya": 436,
      "larda": 437,
      "orta": 438,
      "ib": 439,
      "gu": 440,
      "görev": 441,
      "deki": 442,
      "birlik": 443,
      "şarkı": 444,
      "tir": 445,
      "düz": 446,
      "imi": 447,
      "diği": 448,
      "mil": 449,
      "savaş": 450,
      "raf": 451,
      "bağlı": 452,
      "şi": 453,
      "kap": 454,
      "eli": 455,
      "amer": 456,
      "şek": 457,
      "ika": 458,
      "üs": 459,
      "usu": 460,
      "haz": 461,
      "sağ": 462,
      "diğer": 463,
      "inci": 464,
      "göster": 465,
      "seç": 466,
      "sız": 467,
      "ans": 468,
      "ayrı": 469,
      "ancak": 470,
      "kay": 471,
      "düş": 472,
      "lem": 473,
      "lığı": 474,
      "sez": 475,
      "cek": 476,
      "devlet": 477,
      "üf": 478,
      "olo": 479,
      "kas": 480,
      "res": 481,
      "aynı": 482,
      "etk": 483,
      "şu": 484,
      "maç": 485,
      "per": 486,
      "hak": 487,
      "lara": 488,
      "olduğu": 489,
      "iyet": 490,
      "kor": 491,
      "alık": 492,
      "kazan": 493,
      "çe": 494,
      "alb": 495,
      "sahip": 496,
      "müz": 497,
      "tarihinde": 498,
      "van": 499,
      "ard": 500,
      "vi": 501,
      "sezon": 502,
      "ildi": 503,
      "ck": 504,
      "can": 505,
      "larını": 506,
      "ıs": 507,
      "lo": 508,
      "ede": 509,
      "mayı": 510,
      "mes": 511,
      "tır": 512,
      "türkiye": 513,
      "far": 514,
      "ça": 515,
      "fran": 516,
      "sen": 517,
      "nüf": 518,
      "yayın": 519,
      "lerini": 520,
      "albüm": 521,
      "yol": 522,
      "ünde": 523,
      "öğ": 524,
      "başkan": 525,
      "ade": 526,
      "to": 527,
      "the": 528,
      "yönet": 529,
      "edi": 530,
      "ğını": 531,
      "sit": 532,
      "neden": 533,
      "bulunan": 534,
      "pol": 535,
      "ülk": 536,
      "of": 537,
      "rak": 538,
      "asyon": 539,
      "pi": 540,
      "belir": 541,
      "birlikte": 542,
      "iver": 543,
      "ban": 544,
      "tik": 545,
      "fer": 546,
      "ni": 547,
      "yet": 548,
      "önem": 549,
      "kö": 550,
      "eski": 551,
      "ştı": 552,
      "yaptı": 553,
      "yapı": 554,
      "nde": 555,
      "kend": 556,
      "eder": 557,
      "va": 558,
      "mal": 559,
      "ele": 560,
      "liğ": 561,
      "sil": 562,
      "gal": 563,
      "eleri": 564,
      "sonu": 565,
      "bölüm": 566,
      "say": 567,
      "şehir": 568,
      "ben": 569,
      "larının": 570,
      "sis": 571,
      "yor": 572,
      "gerçek": 573,
      "cü": 574,
      "art": 575,
      "fak": 576,
      "hat": 577,
      "do": 578,
      "gr": 579,
      "ayrıca": 580,
      "sayı": 581,
      "unun": 582,
      "ileri": 583,
      "km": 584,
      "lerinde": 585,
      "yal": 586,
      "dik": 587,
      "iyi": 588,
      "kad": 589,
      "ana": 590,
      "id": 591,
      "aldı": 592,
      "mesi": 593,
      "üniver": 594,
      "kurul": 595,
      "yas": 596,
      "açık": 597,
      "car": 598,
      "gelen": 599,
      "oloj": 600,
      "alman": 601,
      "hem": 602,
      "fut": 603,
      "una": 604,
      "tör": 605,
      "ulus": 606,
      "tu": 607,
      "ılır": 608,
      "ingil": 609,
      "likle": 610,
      "lama": 611,
      "olduğ": 612,
      "oluş": 613,
      "rus": 614,
      "ünü": 615,
      "ız": 616,
      "has": 617,
      "yüksek": 618,
      "bit": 619,
      "dül": 620,
      "co": 621,
      "lerinin": 622,
      "eyi": 623,
      "bar": 624,
      "futbol": 625,
      "kom": 626,
      "olma": 627,
      "gü": 628,
      "kuz": 629,
      "nda": 630,
      "üst": 631,
      "tes": 632,
      "fin": 633,
      "kara": 634,
      "düzen": 635,
      "diz": 636,
      "larına": 637,
      "fark": 638,
      "br": 639,
      "lerde": 640,
      "bin": 641,
      "hur": 642,
      "adlı": 643,
      "insan": 644,
      "içer": 645,
      "ladı": 646,
      "söz": 647,
      "dol": 648,
      "ho": 649,
      "luk": 650,
      "gan": 651,
      "bazı": 652,
      "başladı": 653,
      "kol": 654,
      "tüm": 655,
      "önemli": 656,
      "bilin": 657,
      "rol": 658,
      "ton": 659,
      "tel": 660,
      "bölg": 661,
      "sat": 662,
      "tin": 663,
      "üş": 664,
      "din": 665,
      "hu": 666,
      "ıı": 667,
      "şekil": 668,
      "ilçesine": 669,
      "ali": 670,
      "eşit": 671,
      "önce": 672,
      "deniz": 673,
      "öyle": 674,
      "iran": 675,
      "dış": 676,
      "istanbul": 677,
      "konu": 678,
      "dal": 679,
      "leştir": 680,
      "içinde": 681,
      "sanat": 682,
      "cum": 683,
      "gaz": 684,
      "ılmıştır": 685,
      "nun": 686,
      "mez": 687,
      "anı": 688,
      "ret": 689,
      "kuzey": 690,
      "güney": 691,
      "ço": 692,
      "lis": 693,
      "dil": 694,
      "po": 695,
      "gerek": 696,
      "çı": 697,
      "üniversit": 698,
      "süre": 699,
      "kil": 700,
      "biri": 701,
      "üret": 702,
      "ödül": 703,
      "yapılan": 704,
      "avrup": 705,
      "aşa": 706,
      "ikinci": 707,
      "grup": 708,
      "tor": 709,
      "ven": 710,
      "dem": 711,
      "oluştur": 712,
      "fi": 713,
      "hi": 714,
      "eğit": 715,
      "landı": 716,
      "kır": 717,
      "get": 718,
      "faz": 719,
      "lardan": 720,
      "aları": 721,
      "fes": 722,
      "tas": 723,
      "landır": 724,
      "sor": 725,
      "tal": 726,
      "fil": 727,
      "gru": 728,
      "dy": 729,
      "tama": 730,
      "şamp": 731,
      "yarış": 732,
      "ga": 733,
      "şampiyon": 734,
      "lere": 735,
      "eden": 736,
      "erek": 737,
      "çev": 738,
      "avrupa": 739,
      "kariy": 740,
      "pan": 741,
      "uzun": 742,
      "spor": 743,
      "birçok": 744,
      "masına": 745,
      "osman": 746,
      "mahal": 747,
      "sun": 748,
      "taş": 749,
      "cumhur": 750,
      "değiş": 751,
      "olmuştur": 752,
      "çocu": 753,
      "lanan": 754,
      "yu": 755,
      "kita": 756,
      "durum": 757,
      "uzak": 758,
      "kral": 759,
      "sin": 760,
      "mer": 761,
      "çi": 762,
      "lendir": 763,
      "ket": 764,
      "tos": 765,
      "kiş": 766,
      "nis": 767,
      "kes": 768,
      "getir": 769,
      "kaç": 770,
      "üp": 771,
      "şekilde": 772,
      "birleş": 773,
      "lerinden": 774,
      "göz": 775,
      "lerine": 776,
      "üzerinde": 777,
      "ola": 778,
      "devam": 779,
      "vardır": 780,
      "muş": 781,
      "uk": 782,
      "arası": 783,
      "go": 784,
      "ılık": 785,
      "üzerine": 786,
      "larından": 787,
      "ilik": 788,
      "ındaki": 789,
      "anla": 790,
      "iştir": 791,
      "bes": 792,
      "gür": 793,
      "ham": 794,
      "ilg": 795,
      "mart": 796,
      "küç": 797,
      "itib": 798,
      "oğraf": 799,
      "şa": 800,
      "olduğunu": 801,
      "çeşit": 802,
      "üniversitesi": 803,
      "bay": 804,
      "ask": 805,
      "isim": 806,
      "tah": 807,
      "çoğ": 808,
      "ilmiştir": 809,
      "enin": 810,
      "meye": 811,
      "üzere": 812,
      "ımı": 813,
      "kez": 814,
      "amerik": 815,
      "ator": 816,
      "yaşam": 817,
      "pr": 818,
      "bile": 819,
      "isinde": 820,
      "oyn": 821,
      "bunun": 822,
      "ınır": 823,
      "fazla": 824,
      "vet": 825,
      "sar": 826,
      "şir": 827,
      "del": 828,
      "inc": 829,
      "siyon": 830,
      "pe": 831,
      "çıkar": 832,
      "olmak": 833,
      "kabul": 834,
      "hil": 835,
      "ital": 836,
      "muz": 837,
      "lığ": 838,
      "küçük": 839,
      "ekim": 840,
      "min": 841,
      "dör": 842,
      "ilmiş": 843,
      "ingiliz": 844,
      "yardı": 845,
      "müzik": 846,
      "halk": 847,
      "pa": 848,
      "abd": 849,
      "doğu": 850,
      "nik": 851,
      "dağ": 852,
      "ocak": 853,
      "bilim": 854,
      "gı": 855,
      "val": 856,
      "ardından": 857,
      "kül": 858,
      "bey": 859,
      "mayıs": 860,
      "don": 861,
      "sev": 862,
      "üne": 863,
      "güç": 864,
      "kendi": 865,
      "sam": 866,
      "osmanlı": 867,
      "kadın": 868,
      "oğlu": 869,
      "yaklaş": 870,
      "ses": 871,
      "farklı": 872,
      "gram": 873,
      "elik": 874,
      "oyuncu": 875,
      "öğren": 876,
      "luğu": 877,
      "siz": 878,
      "yüzyıl": 879,
      "kasım": 880,
      "alet": 881,
      "hen": 882,
      "ilinin": 883,
      "esinin": 884,
      "lig": 885,
      "lül": 886,
      "mon": 887,
      "şehr": 888,
      "harek": 889,
      "masını": 890,
      "kem": 891,
      "alın": 892,
      "impar": 893,
      "imparator": 894,
      "mey": 895,
      "nüfus": 896,
      "ğü": 897,
      "aralık": 898,
      "part": 899,
      "iliş": 900,
      "eğitim": 901,
      "sistem": 902,
      "beledi": 903,
      "dok": 904,
      "ştür": 905,
      "ılmış": 906,
      "ğini": 907,
      "kız": 908,
      "bah": 909,
      "yakın": 910,
      "no": 911,
      "lak": 912,
      "gar": 913,
      "doğru": 914,
      "mem": 915,
      "ic": 916,
      "eylül": 917,
      "sını": 918,
      "pla": 919,
      "ırak": 920,
      "duğu": 921,
      "geçir": 922,
      "haf": 923,
      "haziran": 924,
      "şti": 925,
      "tü": 926,
      "so": 927,
      "maları": 928,
      "nisan": 929,
      "zor": 930,
      "temmuz": 931,
      "yardım": 932,
      "lin": 933,
      "ustos": 934,
      "geri": 935,
      "ağustos": 936,
      "kayn": 937,
      "arka": 938,
      "final": 939,
      "ünün": 940,
      "olup": 941,
      "çocuk": 942,
      "yun": 943,
      "çeşitli": 944,
      "hay": 945,
      "izm": 946,
      "uç": 947,
      "ef": 948,
      "tut": 949,
      "sınır": 950,
      "ley": 951,
      "boyun": 952,
      "eser": 953,
      "sade": 954,
      "ölüm": 955,
      "savaşı": 956,
      "kişi": 957,
      "merkezi": 958,
      "sırasında": 959,
      "med": 960,
      "beş": 961,
      "amerika": 962,
      "bilg": 963,
      "batı": 964,
      "onun": 965,
      "tay": 966,
      "düşün": 967,
      "hr": 968,
      "elek": 969,
      "coğraf": 970,
      "kısa": 971,
      "kaynak": 972,
      "rar": 973,
      "görül": 974,
      "dde": 975,
      "edilmiştir": 976,
      "gol": 977,
      "kü": 978,
      "hiz": 979,
      "bulunmaktadır": 980,
      "lük": 981,
      "lerden": 982,
      "las": 983,
      "git": 984,
      "tanı": 985,
      "kim": 986,
      "ilerin": 987,
      "yılları": 988,
      "karak": 989,
      "ste": 990,
      "ortaya": 991,
      "sadece": 992,
      "sos": 993,
      "plan": 994,
      "araştır": 995,
      "ener": 996,
      "şubat": 997,
      "and": 998,
      "pat": 999,
      "jo": 1000,
      "kel": 1001,
      "geliş": 1002,
      "değer": 1003,
      "yıldı": 1004,
      "taşı": 1005,
      "birleşik": 1006,
      "nüfusu": 1007,
      "bal": 1008,
      "geliştir": 1009,
      "tamam": 1010,
      "hareket": 1011,
      "ilişk": 1012,
      "rek": 1013,
      "benz": 1014,
      "parç": 1015,
      "yaklaşık": 1016,
      "indeki": 1017,
      "mahalle": 1018,
      "kültür": 1019,
      "roman": 1020,
      "cin": 1021,
      "boy": 1022,
      "kuv": 1023,
      "program": 1024,
      "dest": 1025,
      "bakan": 1026,
      "yarı": 1027,
      "genç": 1028,
      "topl": 1029,
      "elen": 1030,
      "karar": 1031,
      "larla": 1032,
      "başkanı": 1033,
      "edildi": 1034,
      "gem": 1035,
      "saldır": 1036,
      "ümüz": 1037,
      "lenen": 1038,
      "yılı": 1039,
      "fakat": 1040,
      "boyunca": 1041,
      "sü": 1042,
      "kent": 1043,
      "iyeti": 1044,
      "bek": 1045,
      "onu": 1046,
      "mik": 1047,
      "edilen": 1048,
      "seçim": 1049,
      "siya": 1050,
      "kurulu": 1051,
      "yeniden": 1052,
      "gön": 1053,
      "oyna": 1054,
      "hakk": 1055,
      "hizmet": 1056,
      "mev": 1057,
      "ec": 1058,
      "uluslar": 1059,
      "yok": 1060,
      "yerleş": 1061,
      "atan": 1062,
      "müştür": 1063,
      "zamanda": 1064,
      "nedeniyle": 1065,
      "ke": 1066,
      "rağ": 1067,
      "kıs": 1068,
      "dört": 1069,
      "ulan": 1070,
      "rat": 1071,
      "og": 1072,
      "çağ": 1073,
      "bölge": 1074,
      "ilir": 1075,
      "onom": 1076,
      "birliği": 1077,
      "günümüz": 1078,
      "ant": 1079,
      "ori": 1080,
      "esini": 1081,
      "od": 1082,
      "sak": 1083,
      "ölç": 1084,
      "tarihi": 1085,
      "bağı": 1086,
      "uzaklık": 1087,
      "pek": 1088,
      "destek": 1089,
      "sur": 1090,
      "yayım": 1091,
      "sağla": 1092,
      "görün": 1093,
      "rı": 1094,
      "geniş": 1095,
      "maz": 1096,
      "uluslararası": 1097,
      "anlam": 1098,
      "ılması": 1099,
      "uyg": 1100,
      "kullanı": 1101,
      "üc": 1102,
      "lardır": 1103,
      "onya": 1104,
      "hazır": 1105,
      "hayat": 1106,
      "coğrafya": 1107,
      "yo": 1108,
      "özellikle": 1109,
      "tam": 1110,
      "uygu": 1111,
      "ion": 1112,
      "list": 1113,
      "temsil": 1114,
      "tanım": 1115,
      "nor": 1116,
      "almanya": 1117,
      "umu": 1118,
      "kuvvet": 1119,
      "sonr": 1120,
      "iste": 1121,
      "sonuç": 1122,
      "başarı": 1123,
      "ait": 1124,
      "bırak": 1125,
      "dis": 1126,
      "toplam": 1127,
      "we": 1128,
      "yüksel": 1129,
      "yazar": 1130,
      "lim": 1131,
      "genellikle": 1132,
      "usunda": 1133,
      "sine": 1134,
      "hız": 1135,
      "bab": 1136,
      "bor": 1137,
      "qu": 1138,
      "profes": 1139,
      "isinin": 1140,
      "altında": 1141,
      "bulunur": 1142,
      "fransız": 1143,
      "ğin": 1144,
      "ünden": 1145,
      "önc": 1146,
      "lanmıştır": 1147,
      "erkek": 1148,
      "ep": 1149,
      "duy": 1150,
      "yasa": 1151,
      "za": 1152,
      "giy": 1153,
      "eyalet": 1154,
      "üsü": 1155,
      "dav": 1156,
      "hol": 1157,
      "yunan": 1158,
      "yerine": 1159,
      "eme": 1160,
      "çin": 1161,
      "tif": 1162,
      "sosyal": 1163,
      "ia": 1164,
      "başar": 1165,
      "kür": 1166,
      "nes": 1167,
      "yönetim": 1168,
      "isini": 1169,
      "ilgili": 1170,
      "değil": 1171,
      "yaptığı": 1172,
      "dak": 1173,
      "altı": 1174,
      "dolayı": 1175,
      "sem": 1176,
      "th": 1177,
      "şirket": 1178,
      "dahil": 1179,
      "ayan": 1180,
      "leme": 1181,
      "sch": 1182,
      "atı": 1183,
      "hava": 1184,
      "tra": 1185,
      "sov": 1186,
      "rağmen": 1187,
      "kları": 1188,
      "gazet": 1189,
      "nu": 1190,
      "olay": 1191,
      "yür": 1192,
      "yi": 1193,
      "deği": 1194,
      "burada": 1195,
      "komu": 1196,
      "ac": 1197,
      "ankara": 1198,
      "gerçekleştir": 1199,
      "iyor": 1200,
      "okul": 1201,
      "tekrar": 1202,
      "çıktı": 1203,
      "temel": 1204,
      "jap": 1205,
      "öğret": 1206,
      "çalı": 1207,
      "pet": 1208,
      "fransa": 1209,
      "inşa": 1210,
      "net": 1211,
      "kup": 1212,
      "başka": 1213,
      "daş": 1214,
      "öldür": 1215,
      "ros": 1216,
      "bet": 1217,
      "gin": 1218,
      "hük": 1219,
      "isyon": 1220,
      "olması": 1221,
      "lerle": 1222,
      "organ": 1223,
      "kav": 1224,
      "ji": 1225,
      "yalı": 1226,
      "stan": 1227,
      "kayı": 1228,
      "ulusal": 1229,
      "luğ": 1230,
      "elektr": 1231,
      "ent": 1232,
      "almıştır": 1233,
      "çevr": 1234,
      "olur": 1235,
      "new": 1236,
      "karde": 1237,
      "beri": 1238,
      "dra": 1239,
      "ail": 1240,
      "kazandı": 1241,
      "anlaş": 1242,
      "sıra": 1243,
      "büt": 1244,
      "oloji": 1245,
      "sovyet": 1246,
      "elde": 1247,
      "mus": 1248,
      "ona": 1249,
      "milyon": 1250,
      "cam": 1251,
      "ğında": 1252,
      "ulaş": 1253,
      "uzaklıktadır": 1254,
      "trans": 1255,
      "idar": 1256,
      "gönder": 1257,
      "kop": 1258,
      "kariyeri": 1259,
      "toprak": 1260,
      "mah": 1261,
      "yanı": 1262,
      "isine": 1263,
      "tarihçe": 1264,
      "sim": 1265,
      "gın": 1266,
      "ilmesi": 1267,
      "zen": 1268,
      "güven": 1269,
      "ılmaktadır": 1270,
      "fik": 1271,
      "ala": 1272,
      "karakter": 1273,
      "yapım": 1274,
      "millet": 1275,
      "ner": 1276,
      "kitap": 1277,
      "gh": 1278,
      "sınıf": 1279,
      "devr": 1280,
      "kut": 1281,
      "ılım": 1282,
      "sul": 1283,
      "tasar": 1284,
      "aret": 1285,
      "karş": 1286,
      "nok": 1287,
      "hiç": 1288,
      "sonunda": 1289,
      "futbolcu": 1290,
      "rusya": 1291,
      "nek": 1292,
      "belirt": 1293,
      "ktan": 1294,
      "geler": 1295,
      "ydı": 1296,
      "amerikan": 1297,
      "roma": 1298,
      "keş": 1299,
      "kariyer": 1300,
      "pop": 1301,
      "ram": 1302,
      "kuş": 1303,
      "asker": 1304,
      "pu": 1305,
      "sol": 1306,
      "def": 1307,
      "ağır": 1308,
      "trol": 1309,
      "arap": 1310,
      "yazı": 1311,
      "emek": 1312,
      "aren": 1313,
      "çif": 1314,
      "özellik": 1315,
      "teknik": 1316,
      "ast": 1317,
      "bağım": 1318,
      "idi": 1319,
      "uş": 1320,
      "eviz": 1321,
      "şey": 1322,
      "hin": 1323,
      "lek": 1324,
      "paşa": 1325,
      "sırada": 1326,
      "değiştir": 1327,
      "takımı": 1328,
      "ps": 1329,
      "birkaç": 1330,
      "bilinen": 1331,
      "ibi": 1332,
      "sahiptir": 1333,
      "sık": 1334,
      "mec": 1335,
      "hakkında": 1336,
      "les": 1337,
      "sında": 1338,
      "yordu": 1339,
      "söyle": 1340,
      "fon": 1341,
      "polit": 1342,
      "çalışmalar": 1343,
      "grubu": 1344,
      "söy": 1345,
      "undan": 1346,
      "hüküm": 1347,
      "itibarı": 1348,
      "avus": 1349,
      "biz": 1350,
      "müca": 1351,
      "giriş": 1352,
      "vil": 1353,
      "altın": 1354,
      "ifade": 1355,
      "ece": 1356,
      "bağlan": 1357,
      "kullanılan": 1358,
      "alır": 1359,
      "nat": 1360,
      "babası": 1361,
      "yaşında": 1362,
      "üçün": 1363,
      "sebe": 1364,
      "adıyla": 1365,
      "mat": 1366,
      "uğ": 1367,
      "hir": 1368,
      "ispan": 1369,
      "ann": 1370,
      "tip": 1371,
      "kulüp": 1372,
      "savun": 1373,
      "aber": 1374,
      "mıştı": 1375,
      "ince": 1376,
      "ime": 1377,
      "uluk": 1378,
      "cer": 1379,
      "gelir": 1380,
      "ettiği": 1381,
      "üb": 1382,
      "böyle": 1383,
      "wil": 1384,
      "değişik": 1385,
      "aşağı": 1386,
      "lon": 1387,
      "çap": 1388,
      "arasındaki": 1389,
      "sey": 1390,
      "tesi": 1391,
      "ina": 1392,
      "hane": 1393,
      "laştır": 1394,
      "hast": 1395,
      "yapan": 1396,
      "ly": 1397,
      "cısı": 1398,
      "oluşan": 1399,
      "ticar": 1400,
      "ecek": 1401,
      "yine": 1402,
      "matik": 1403,
      "silah": 1404,
      "beraber": 1405,
      "red": 1406,
      "ici": 1407,
      "kitab": 1408,
      "diler": 1409,
      "yatı": 1410,
      "sta": 1411,
      "ry": 1412,
      "yolu": 1413,
      "yönetmen": 1414,
      "larak": 1415,
      "cılı": 1416,
      "jan": 1417,
      "sanatçı": 1418,
      "eleştir": 1419,
      "demir": 1420,
      "bütün": 1421,
      "ışı": 1422,
      "meler": 1423,
      "çar": 1424,
      "cumhuriyeti": 1425,
      "çiz": 1426,
      "rik": 1427,
      "çıkan": 1428,
      "vur": 1429,
      "gor": 1430,
      "tep": 1431,
      "diğini": 1432,
      "sezonunda": 1433,
      "mot": 1434,
      "kalan": 1435,
      "mahalledir": 1436,
      "şehrin": 1437,
      "konuş": 1438,
      "land": 1439,
      "kam": 1440,
      "temi": 1441,
      "yıldız": 1442,
      "verdi": 1443,
      "etmiştir": 1444,
      "etmek": 1445,
      "göl": 1446,
      "inan": 1447,
      "hn": 1448,
      "kulüb": 1449,
      "kontrol": 1450,
      "üçüncü": 1451,
      "lerdir": 1452,
      "num": 1453,
      "bağımsız": 1454,
      "zi": 1455,
      "cusu": 1456,
      "tiyat": 1457,
      "almaktadır": 1458,
      "proj": 1459,
      "iydi": 1460,
      "kupası": 1461,
      "yapmıştır": 1462,
      "malı": 1463,
      "kir": 1464,
      "kuru": 1465,
      "cen": 1466,
      "ülkeler": 1467,
      "saat": 1468,
      "evizyon": 1469,
      "isti": 1470,
      "örne": 1471,
      "çift": 1472,
      "ligi": 1473,
      "kin": 1474,
      "ja": 1475,
      "tere": 1476,
      "umlu": 1477,
      "biç": 1478,
      "cor": 1479,
      "manın": 1480,
      "yahu": 1481,
      "tanın": 1482,
      "itibaren": 1483,
      "dele": 1484,
      "adını": 1485,
      "boz": 1486,
      "ekonom": 1487,
      "merkezine": 1488,
      "uygula": 1489,
      "con": 1490,
      "akade": 1491,
      "koru": 1492,
      "tat": 1493,
      "anda": 1494,
      "edilir": 1495,
      "beyaz": 1496,
      "dayan": 1497,
      "lendi": 1498,
      "oper": 1499,
      "asıl": 1500,
      "kaldı": 1501,
      "şah": 1502,
      "yonel": 1503,
      "ünlü": 1504,
      "masının": 1505,
      "ciler": 1506,
      "mit": 1507,
      "anın": 1508,
      "vide": 1509,
      "model": 1510,
      "profesyonel": 1511,
      "fe": 1512,
      "döneminde": 1513,
      "buna": 1514,
      "üyesi": 1515,
      "televizyon": 1516,
      "adlandır": 1517,
      "amerikalı": 1518,
      "anad": 1519,
      "olmayan": 1520,
      "biy": 1521,
      "sl": 1522,
      "sonucu": 1523,
      "albümü": 1524,
      "fiz": 1525,
      "raki": 1526,
      "devletleri": 1527,
      "imar": 1528,
      "ova": 1529,
      "geldi": 1530,
      "çoğu": 1531,
      "filmi": 1532,
      "asyonu": 1533,
      "ale": 1534,
      "kayıt": 1535,
      "ph": 1536,
      "cez": 1537,
      "belediye": 1538,
      "fel": 1539,
      "verilen": 1540,
      "ödülü": 1541,
      "fır": 1542,
      "parti": 1543,
      "yoğ": 1544,
      "amacı": 1545,
      "anan": 1546,
      "ize": 1547,
      "görüş": 1548,
      "sp": 1549,
      "sonraki": 1550,
      "olojik": 1551,
      "kli": 1552,
      "benzer": 1553,
      "ıldığı": 1554,
      "saldırı": 1555,
      "cağı": 1556,
      "masında": 1557,
      "tiyatro": 1558,
      "lor": 1559,
      "gök": 1560,
      "dışında": 1561,
      "cel": 1562,
      "cut": 1563,
      "iyan": 1564,
      "medi": 1565,
      "mor": 1566,
      "hangi": 1567,
      "poz": 1568,
      "meydan": 1569,
      "italya": 1570,
      "dyo": 1571,
      "ingiltere": 1572,
      "partisi": 1573,
      "iddi": 1574,
      "labilir": 1575,
      "madde": 1576,
      "üler": 1577,
      "hayvan": 1578,
      "det": 1579,
      "iyordu": 1580,
      "mada": 1581,
      "şekl": 1582,
      "urt": 1583,
      "pit": 1584,
      "layan": 1585,
      "sürdür": 1586,
      "istik": 1587,
      "dük": 1588,
      "ıt": 1589,
      "pen": 1590,
      "askeri": 1591,
      "asına": 1592,
      "türü": 1593,
      "ılma": 1594,
      "liğini": 1595,
      "anadolu": 1596,
      "aldığı": 1597,
      "örnek": 1598,
      "fet": 1599,
      "ayet": 1600,
      "karı": 1601,
      "esinden": 1602,
      "sh": 1603,
      "attı": 1604,
      "ker": 1605,
      "ide": 1606,
      "koy": 1607,
      "yoğun": 1608,
      "john": 1609,
      "ze": 1610,
      "itibarıyla": 1611,
      "adan": 1612,
      "ortak": 1613,
      "mişti": 1614,
      "eur": 1615,
      "birbir": 1616,
      "esel": 1617,
      "tanrı": 1618,
      "yum": 1619,
      "bon": 1620,
      "bugün": 1621,
      "lanmış": 1622,
      "dağı": 1623,
      "dönemde": 1624,
      "küt": 1625,
      "belediy": 1626,
      "win": 1627,
      "faal": 1628,
      "form": 1629,
      "çu": 1630,
      "sc": 1631,
      "dair": 1632,
      "mağ": 1633,
      "sk": 1634,
      "ermen": 1635,
      "adam": 1636,
      "olduk": 1637,
      "birinci": 1638,
      "fakül": 1639,
      "aya": 1640,
      "çalıştı": 1641,
      "elem": 1642,
      "oz": 1643,
      "mut": 1644,
      "imz": 1645,
      "günümüzde": 1646,
      "suz": 1647,
      "mevcut": 1648,
      "evi": 1649,
      "ilçe": 1650,
      "yerel": 1651,
      "dek": 1652,
      "landa": 1653,
      "alanı": 1654,
      "müş": 1655,
      "ayak": 1656,
      "ülke": 1657,
      "toplum": 1658,
      "leriyle": 1659,
      "veç": 1660,
      "yaygın": 1661,
      "ty": 1662,
      "içerisinde": 1663,
      "mic": 1664,
      "katıldı": 1665,
      "ısında": 1666,
      "çöz": 1667,
      "bl": 1668,
      "yıllarında": 1669,
      "feder": 1670,
      "nit": 1671,
      "hemen": 1672,
      "osu": 1673,
      "abilir": 1674,
      "oynadı": 1675,
      "gil": 1676,
      "teki": 1677,
      "rika": 1678,
      "ordusu": 1679,
      "ümü": 1680,
      "one": 1681,
      "lanır": 1682,
      "masıyla": 1683,
      "oku": 1684,
      "ort": 1685,
      "paz": 1686,
      "derg": 1687,
      "transfer": 1688,
      "masından": 1689,
      "biçim": 1690,
      "best": 1691,
      "com": 1692,
      "huku": 1693,
      "ris": 1694,
      "geçti": 1695,
      "sistemi": 1696,
      "leyen": 1697,
      "motor": 1698,
      "his": 1699,
      "mesine": 1700,
      "siyas": 1701,
      "bölgeler": 1702,
      "seri": 1703,
      "kullanılır": 1704,
      "öldü": 1705,
      "tık": 1706,
      "edebi": 1707,
      "isimli": 1708,
      "veren": 1709,
      "suç": 1710,
      "lüğ": 1711,
      "imparatorluğu": 1712,
      "fat": 1713,
      "ştu": 1714,
      "mücadele": 1715,
      "etkin": 1716,
      "göç": 1717,
      "aday": 1718,
      "üman": 1719,
      "faaliyet": 1720,
      "ürün": 1721,
      "nden": 1722,
      "direk": 1723,
      "ışık": 1724,
      "kın": 1725,
      "şta": 1726,
      "mimar": 1727,
      "sayım": 1728,
      "moder": 1729,
      "araştırma": 1730,
      "ayında": 1731,
      "cisi": 1732,
      "vol": 1733,
      "mel": 1734,
      "resmi": 1735,
      "bölümü": 1736,
      "laştı": 1737,
      "meyi": 1738,
      "hit": 1739,
      "örneğin": 1740,
      "vak": 1741,
      "ebilir": 1742,
      "tim": 1743,
      "şim": 1744,
      "hayatı": 1745,
      "şehri": 1746,
      "mos": 1747,
      "mısır": 1748,
      "yapımı": 1749,
      "geçen": 1750,
      "ayar": 1751,
      "yık": 1752,
      "siyasi": 1753,
      "chi": 1754,
      "lığını": 1755,
      "kurulan": 1756,
      "araç": 1757,
      "sultan": 1758,
      "dr": 1759,
      "böylece": 1760,
      "meh": 1761,
      "perfor": 1762,
      "siyaset": 1763,
      "larıyla": 1764,
      "nız": 1765,
      "yanın": 1766,
      "makta": 1767,
      "mesini": 1768,
      "ani": 1769,
      "bulundu": 1770,
      "kıyı": 1771,
      "yalnız": 1772,
      "iliği": 1773,
      "modern": 1774,
      "graf": 1775,
      "çoğun": 1776,
      "kısı": 1777,
      "col": 1778,
      "doğdu": 1779,
      "tiv": 1780,
      "kayb": 1781,
      "elerin": 1782,
      "ilet": 1783,
      "azer": 1784,
      "bulunduğu": 1785,
      "up": 1786,
      "köydür": 1787,
      "erken": 1788,
      "eni": 1789,
      "je": 1790,
      "performan": 1791,
      "rah": 1792,
      "başkanlığı": 1793,
      "fı": 1794,
      "zar": 1795,
      "bölgesi": 1796,
      "pas": 1797,
      "kaldır": 1798,
      "dönüş": 1799,
      "amaç": 1800,
      "mir": 1801,
      "kurt": 1802,
      "cılık": 1803,
      "alarında": 1804,
      "mur": 1805,
      "üldü": 1806,
      "futbolcudur": 1807,
      "gelenek": 1808,
      "giz": 1809,
      "dam": 1810,
      "güt": 1811,
      "meden": 1812,
      "kenin": 1813,
      "müdür": 1814,
      "işlem": 1815,
      "hey": 1816,
      "gre": 1817,
      "günü": 1818,
      "acak": 1819,
      "parçası": 1820,
      "hav": 1821,
      "yaşayan": 1822,
      "oto": 1823,
      "etik": 1824,
      "doktor": 1825,
      "hes": 1826,
      "stat": 1827,
      "sonuc": 1828,
      "lit": 1829,
      "sıyla": 1830,
      "ingilizce": 1831,
      "forma": 1832,
      "dikkat": 1833,
      "yıllık": 1834,
      "mis": 1835,
      "gez": 1836,
      "lenmiştir": 1837,
      "komün": 1838,
      "teor": 1839,
      "lisi": 1840,
      "vir": 1841,
      "dığını": 1842,
      "yılından": 1843,
      "ilebilir": 1844,
      "biridir": 1845,
      "tral": 1846,
      "fir": 1847,
      "bitir": 1848,
      "teş": 1849,
      "taki": 1850,
      "sıcak": 1851,
      "sahibi": 1852,
      "wa": 1853,
      "soy": 1854,
      "madan": 1855,
      "herhangi": 1856,
      "amı": 1857,
      "tekn": 1858,
      "baycan": 1859,
      "yıllarda": 1860,
      "şan": 1861,
      "milletve": 1862,
      "azerbaycan": 1863,
      "asını": 1864,
      "dizi": 1865,
      "burg": 1866,
      "başarılı": 1867,
      "başlan": 1868,
      "kenti": 1869,
      "uldu": 1870,
      "bunu": 1871,
      "dow": 1872,
      "şiir": 1873,
      "sezonu": 1874,
      "paris": 1875,
      "des": 1876,
      "str": 1877,
      "ds": 1878,
      "pay": 1879,
      "bert": 1880,
      "keşf": 1881,
      "tv": 1882,
      "yani": 1883,
      "köken": 1884,
      "diye": 1885,
      "haber": 1886,
      "naz": 1887,
      "au": 1888,
      "afrika": 1889,
      "cumhuriyet": 1890,
      "may": 1891,
      "aların": 1892,
      "izin": 1893,
      "fizik": 1894,
      "cm": 1895,
      "çat": 1896,
      "ismi": 1897,
      "işle": 1898,
      "lav": 1899,
      "maçta": 1900,
      "aray": 1901,
      "metre": 1902,
      "rail": 1903,
      "konusunda": 1904,
      "güz": 1905,
      "yanında": 1906,
      "ülkenin": 1907,
      "tespit": 1908,
      "örgüt": 1909,
      "lüğü": 1910,
      "kale": 1911,
      "vardı": 1912,
      "video": 1913,
      "okulu": 1914,
      "kamp": 1915,
      "eb": 1916,
      "iline": 1917,
      "bilgi": 1918,
      "turnu": 1919,
      "sing": 1920,
      "hüc": 1921,
      "aj": 1922,
      "eral": 1923,
      "bildir": 1924,
      "teh": 1925,
      "düzenlenen": 1926,
      "lenir": 1927,
      "lat": 1928,
      "olabilir": 1929,
      "jen": 1930,
      "uygun": 1931,
      "york": 1932,
      "ilan": 1933,
      "işleri": 1934,
      "işlet": 1935,
      "ıntı": 1936,
      "cas": 1937,
      "mezun": 1938,
      "cılar": 1939,
      "fo": 1940,
      "ism": 1941,
      "engel": 1942,
      "yerleşim": 1943,
      "şeklinde": 1944,
      "taydı": 1945,
      "aile": 1946,
      "oldukça": 1947,
      "balık": 1948,
      "okrat": 1949,
      "politik": 1950,
      "açı": 1951,
      "yürüt": 1952,
      "my": 1953,
      "hiçbir": 1954,
      "yağ": 1955,
      "üretim": 1956,
      "sayıda": 1957,
      "konser": 1958,
      "esiyle": 1959,
      "süper": 1960,
      "ayd": 1961,
      "tart": 1962,
      "sonrasında": 1963,
      "liam": 1964,
      "kilis": 1965,
      "mö": 1966,
      "cağını": 1967,
      "ilere": 1968,
      "bölgesinde": 1969,
      "olim": 1970,
      "yorum": 1971,
      "ğın": 1972,
      "tok": 1973,
      "madal": 1974,
      "hale": 1975,
      "başlayan": 1976,
      "köyün": 1977,
      "bizans": 1978,
      "bro": 1979,
      "dö": 1980,
      "kanal": 1981,
      "ders": 1982,
      "öncek": 1983,
      "nam": 1984,
      "site": 1985,
      "ceği": 1986,
      "davi": 1987,
      "haline": 1988,
      "ateş": 1989,
      "ederek": 1990,
      "başına": 1991,
      "israil": 1992,
      "girdi": 1993,
      "cılığı": 1994,
      "piyasa": 1995,
      "asıyla": 1996,
      "lamak": 1997,
      "elektrik": 1998,
      "zir": 1999,
      "deney": 2000,
      "japon": 2001,
      "bakanı": 2002,
      "müzi": 2003,
      "fab": 2004,
      "fot": 2005,
      "islam": 2006,
      "işgal": 2007,
      "güneş": 2008,
      "güçlü": 2009,
      "yılına": 2010,
      "bakanlığı": 2011,
      "etmektedir": 2012,
      "tro": 2013,
      "sefer": 2014,
      "ekli": 2015,
      "yaban": 2016,
      "sına": 2017,
      "yaşamı": 2018,
      "önceki": 2019,
      "güzel": 2020,
      "anlamına": 2021,
      "ekonomik": 2022,
      "vat": 2023,
      "kızıl": 2024,
      "ilerek": 2025,
      "zon": 2026,
      "yüzyılda": 2027,
      "jin": 2028,
      "doğal": 2029,
      "hri": 2030,
      "serbest": 2031,
      "gider": 2032,
      "eyen": 2033,
      "asya": 2034,
      "rad": 2035,
      "başlangı": 2036,
      "renk": 2037,
      "başlamıştır": 2038,
      "bilgis": 2039,
      "italyan": 2040,
      "lemek": 2041,
      "sorun": 2042,
      "parça": 2043,
      "abil": 2044,
      "uyar": 2045,
      "lider": 2046,
      "adet": 2047,
      "düşük": 2048,
      "wor": 2049,
      "ydi": 2050,
      "yör": 2051,
      "pren": 2052,
      "mm": 2053,
      "hukuk": 2054,
      "ilerini": 2055,
      "çün": 2056,
      "yav": 2057,
      "kaya": 2058,
      "omo": 2059,
      "edilmiş": 2060,
      "iken": 2061,
      "ila": 2062,
      "ell": 2063,
      "bağlantı": 2064,
      "kuruluş": 2065,
      "fakültesi": 2066,
      "yöntem": 2067,
      "abile": 2068,
      "çalışan": 2069,
      "galak": 2070,
      "yana": 2071,
      "çünkü": 2072,
      "vas": 2073,
      "isa": 2074,
      "hap": 2075,
      "ğine": 2076,
      "kış": 2077,
      "tartış": 2078,
      "başında": 2079,
      "türkçe": 2080,
      "değildir": 2081,
      "sonucunda": 2082,
      "basket": 2083,
      "tiya": 2084,
      "lamıştır": 2085,
      "edilm": 2086,
      "sözleş": 2087,
      "ispanya": 2088,
      "muhar": 2089,
      "hafta": 2090,
      "mol": 2091,
      "konum": 2092,
      "itan": 2093,
      "kardeş": 2094,
      "gus": 2095,
      "karşılaş": 2096,
      "krallık": 2097,
      "omet": 2098,
      "müsl": 2099,
      "ticaret": 2100,
      "direktör": 2101,
      "amacıyla": 2102,
      "inç": 2103,
      "endi": 2104,
      "mühen": 2105,
      "kardeşi": 2106,
      "ıp": 2107,
      "anlat": 2108,
      "ğına": 2109,
      "diğinde": 2110,
      "gerçekleş": 2111,
      "ts": 2112,
      "lah": 2113,
      "kızı": 2114,
      "sinema": 2115,
      "araya": 2116,
      "char": 2117,
      "pozisyon": 2118,
      "stit": 2119,
      "cil": 2120,
      "olimpi": 2121,
      "muh": 2122,
      "dünyanın": 2123,
      "yarat": 2124,
      "mad": 2125,
      "yasal": 2126,
      "filmin": 2127,
      "kurum": 2128,
      "zem": 2129,
      "yarak": 2130,
      "geçer": 2131,
      "stü": 2132,
      "orman": 2133,
      "bla": 2134,
      "nı": 2135,
      "kapsam": 2136,
      "nan": 2137,
      "sahn": 2138,
      "başlar": 2139,
      "japonya": 2140,
      "wo": 2141,
      "canlandır": 2142,
      "ğa": 2143,
      "und": 2144,
      "oda": 2145,
      "kuvvetleri": 2146,
      "işim": 2147,
      "cal": 2148,
      "nak": 2149,
      "indir": 2150,
      "gül": 2151,
      "yardımcı": 2152,
      "sas": 2153,
      "çalışmaları": 2154,
      "seslendir": 2155,
      "rock": 2156,
      "ces": 2157,
      "olmuş": 2158,
      "nokt": 2159,
      "izmir": 2160,
      "istiyan": 2161,
      "asit": 2162,
      "grubun": 2163,
      "veri": 2164,
      "doğan": 2165,
      "pap": 2166,
      "elerinin": 2167,
      "ziy": 2168,
      "ledi": 2169,
      "elerinde": 2170,
      "ff": 2171,
      "astr": 2172,
      "konusu": 2173,
      "müslüman": 2174,
      "ortal": 2175,
      "lanma": 2176,
      "est": 2177,
      "meydana": 2178,
      "başı": 2179,
      "uzay": 2180,
      "ifor": 2181,
      "üyle": 2182,
      "taşın": 2183,
      "gat": 2184,
      "tamamen": 2185,
      "io": 2186,
      "ndan": 2187,
      "ceğini": 2188,
      "metal": 2189,
      "rich": 2190,
      "mahkem": 2191,
      "birim": 2192,
      "avustur": 2193,
      "para": 2194,
      "ııı": 2195,
      "sayısı": 2196,
      "yayınlanan": 2197,
      "verir": 2198,
      "düğ": 2199,
      "sının": 2200,
      "idari": 2201,
      "ladığı": 2202,
      "sağlık": 2203,
      "bilgisayar": 2204,
      "soğ": 2205,
      "wi": 2206,
      "resim": 2207,
      "sidir": 2208,
      "yalnızca": 2209,
      "esidir": 2210,
      "boş": 2211,
      "maktaydı": 2212,
      "mark": 2213,
      "kili": 2214,
      "öm": 2215,
      "sona": 2216,
      "inter": 2217,
      "senar": 2218,
      "yeş": 2219,
      "ision": 2220,
      "gam": 2221,
      "yönünde": 2222,
      "olimpiyat": 2223,
      "dor": 2224,
      "gran": 2225,
      "seçildi": 2226,
      "kaf": 2227,
      "yapıldı": 2228,
      "ayır": 2229,
      "tarım": 2230,
      "şampiyonası": 2231,
      "kariyerine": 2232,
      "donan": 2233,
      "vatan": 2234,
      "olacak": 2235,
      "klas": 2236,
      "lilik": 2237,
      "boğ": 2238,
      "culuk": 2239,
      "bilinir": 2240,
      "boyut": 2241,
      "elerde": 2242,
      "bahçe": 2243,
      "nehri": 2244,
      "arkadaş": 2245,
      "gözlem": 2246,
      "sik": 2247,
      "bulgar": 2248,
      "çak": 2249,
      "çalışma": 2250,
      "keti": 2251,
      "lığına": 2252,
      "standar": 2253,
      "alarda": 2254,
      "ite": 2255,
      "hor": 2256,
      "yarışması": 2257,
      "devleti": 2258,
      "hedef": 2259,
      "unvan": 2260,
      "kavram": 2261,
      "zorunda": 2262,
      "piyasaya": 2263,
      "ştü": 2264,
      "çevir": 2265,
      "tasarım": 2266,
      "ilerine": 2267,
      "içeren": 2268,
      "ekip": 2269,
      "terc": 2270,
      "kelim": 2271,
      "şarkıcı": 2272,
      "üzerinden": 2273,
      "çan": 2274,
      "bis": 2275,
      "miktar": 2276,
      "leşti": 2277,
      "liğinde": 2278,
      "uygulan": 2279,
      "iddia": 2280,
      "sebep": 2281,
      "edebiyat": 2282,
      "ilmektedir": 2283,
      "omi": 2284,
      "kün": 2285,
      "kuruldu": 2286,
      "tük": 2287,
      "kısm": 2288,
      "mate": 2289,
      "londra": 2290,
      "bunlar": 2291,
      "derece": 2292,
      "los": 2293,
      "basketbol": 2294,
      "hip": 2295,
      "özgür": 2296,
      "kurdu": 2297,
      "kendisine": 2298,
      "kurulmuştur": 2299,
      "hızlı": 2300,
      "lidir": 2301,
      "nedenle": 2302,
      "çarp": 2303,
      "madalya": 2304,
      "uçak": 2305,
      "tiler": 2306,
      "bri": 2307,
      "alarak": 2308,
      "ınca": 2309,
      "daşı": 2310,
      "öğretmen": 2311,
      "antik": 2312,
      "pazar": 2313,
      "lardı": 2314,
      "enerji": 2315,
      "avustral": 2316,
      "william": 2317,
      "koş": 2318,
      "yayınlandı": 2319,
      "şirketi": 2320,
      "pak": 2321,
      "üniversite": 2322,
      "hristiyan": 2323,
      "mızı": 2324,
      "ucu": 2325,
      "galat": 2326,
      "general": 2327,
      "toplan": 2328,
      "sonrası": 2329,
      "etmiş": 2330,
      "cık": 2331,
      "popüler": 2332,
      "tav": 2333,
      "musta": 2334,
      "geleneksel": 2335,
      "mesiyle": 2336,
      "yken": 2337,
      "organiz": 2338,
      "isveç": 2339,
      "kendisi": 2340,
      "kısmı": 2341,
      "taj": 2342,
      "sy": 2343,
      "ity": 2344,
      "katı": 2345,
      "yayıl": 2346,
      "anal": 2347,
      "serg": 2348,
      "mühendis": 2349,
      "distan": 2350,
      "mezar": 2351,
      "felse": 2352,
      "oluşur": 2353,
      "etkil": 2354,
      "başlat": 2355,
      "berg": 2356,
      "yeter": 2357,
      "diren": 2358,
      "yurt": 2359,
      "ziyaret": 2360,
      "düğü": 2361,
      "jam": 2362,
      "küm": 2363,
      "kullanım": 2364,
      "oran": 2365,
      "macar": 2366,
      "dip": 2367,
      "tren": 2368,
      "artık": 2369,
      "öner": 2370,
      "asının": 2371,
      "cem": 2372,
      "deri": 2373,
      "normal": 2374,
      "tedir": 2375,
      "geçmiş": 2376,
      "not": 2377,
      "tion": 2378,
      "tepe": 2379,
      "kralı": 2380,
      "int": 2381,
      "kum": 2382,
      "maçı": 2383,
      "kolay": 2384,
      "ğe": 2385,
      "buz": 2386,
      "yıldızı": 2387,
      "tiği": 2388,
      "köpr": 2389,
      "gon": 2390,
      "çıkış": 2391,
      "davran": 2392,
      "gc": 2393,
      "ju": 2394,
      "sarı": 2395,
      "bb": 2396,
      "aşağıdaki": 2397,
      "hid": 2398,
      "seviy": 2399,
      "enstit": 2400,
      "angel": 2401,
      "eyaletinde": 2402,
      "ron": 2403,
      "canlı": 2404,
      "yapmış": 2405,
      "defa": 2406,
      "katkı": 2407,
      "lenmiş": 2408,
      "emi": 2409,
      "güm": 2410,
      "versiyon": 2411,
      "saray": 2412,
      "başkenti": 2413,
      "sunu": 2414,
      "verildi": 2415,
      "bilen": 2416,
      "pil": 2417,
      "wal": 2418,
      "aydın": 2419,
      "cami": 2420,
      "amak": 2421,
      "tekli": 2422,
      "değerlendir": 2423,
      "maçında": 2424,
      "olmasına": 2425,
      "düzey": 2426,
      "dönemi": 2427,
      "isidir": 2428,
      "komutan": 2429,
      "ölçü": 2430,
      "yazarı": 2431,
      "rum": 2432,
      "tipi": 2433,
      "öğretim": 2434,
      "dördün": 2435,
      "puan": 2436,
      "kayna": 2437,
      "pal": 2438,
      "polis": 2439,
      "yahudi": 2440,
      "kötü": 2441,
      "mekan": 2442,
      "portek": 2443,
      "portekiz": 2444,
      "bank": 2445,
      "taban": 2446,
      "tele": 2447,
      "ısından": 2448,
      "demokrat": 2449,
      "dönü": 2450,
      "yüzyılın": 2451,
      "ian": 2452,
      "tun": 2453,
      "yedi": 2454,
      "sahne": 2455,
      "hel": 2456,
      "cat": 2457,
      "tez": 2458,
      "madı": 2459,
      "sekiz": 2460,
      "isel": 2461,
      "kırmızı": 2462,
      "fener": 2463,
      "elektron": 2464,
      "set": 2465,
      "birey": 2466,
      "verdiği": 2467,
      "yapar": 2468,
      "aktif": 2469,
      "gun": 2470,
      "lacak": 2471,
      "suriye": 2472,
      "altına": 2473,
      "tap": 2474,
      "satış": 2475,
      "duyur": 2476,
      "tıp": 2477,
      "bununla": 2478,
      "ras": 2479,
      "single": 2480,
      "geor": 2481,
      "avusturya": 2482,
      "mustafa": 2483,
      "dikleri": 2484,
      "ısı": 2485,
      "kamu": 2486,
      "yabancı": 2487,
      "bölgede": 2488,
      "takip": 2489,
      "ülen": 2490,
      "kore": 2491,
      "şen": 2492,
      "test": 2493,
      "müm": 2494,
      "sayımına": 2495,
      "çatış": 2496,
      "dikten": 2497,
      "eğer": 2498,
      "kitabı": 2499,
      "olsa": 2500,
      "kazanan": 2501,
      "satın": 2502,
      "lisans": 2503,
      "meleri": 2504,
      "diş": 2505,
      "play": 2506,
      "üye": 2507,
      "ej": 2508,
      "ihtiya": 2509,
      "fotoğraf": 2510,
      "ilim": 2511,
      "uğra": 2512,
      "fu": 2513,
      "meclis": 2514,
      "mehmet": 2515,
      "oyunu": 2516,
      "siy": 2517,
      "coun": 2518,
      "barış": 2519,
      "meyen": 2520,
      "layı": 2521,
      "sanay": 2522,
      "aşır": 2523,
      "yeten": 2524,
      "araz": 2525,
      "çoğunluk": 2526,
      "ağaç": 2527,
      "radyo": 2528,
      "sovyetler": 2529,
      "dos": 2530,
      "güvenlik": 2531,
      "dows": 2532,
      "basın": 2533,
      "erz": 2534,
      "edilmektedir": 2535,
      "yeri": 2536,
      "derec": 2537,
      "yeti": 2538,
      "annesi": 2539,
      "yapılmıştır": 2540,
      "elerini": 2541,
      "şarkısı": 2542,
      "lanması": 2543,
      "kate": 2544,
      "kurtar": 2545,
      "yüzey": 2546,
      "fen": 2547,
      "alanında": 2548,
      "hesap": 2549,
      "hraman": 2550,
      "ğinde": 2551,
      "cinsel": 2552,
      "asaray": 2553,
      "cihaz": 2554,
      "duvar": 2555,
      "ağı": 2556,
      "aba": 2557,
      "galatasaray": 2558,
      "fam": 2559,
      "iforni": 2560,
      "ngc": 2561,
      "adına": 2562,
      "vı": 2563,
      "içi": 2564,
      "yılın": 2565,
      "yse": 2566,
      "galaksidir": 2567,
      "dili": 2568,
      "kahraman": 2569,
      "kendini": 2570,
      "babas": 2571,
      "esir": 2572,
      "dışı": 2573,
      "karşısında": 2574,
      "stady": 2575,
      "ue": 2576,
      "bom": 2577,
      "zengin": 2578,
      "dördüncü": 2579,
      "yılının": 2580,
      "bunların": 2581,
      "war": 2582,
      "ispanyol": 2583,
      "vel": 2584,
      "eurov": 2585,
      "içerir": 2586,
      "windows": 2587,
      "atür": 2588,
      "blo": 2589,
      "şehirdir": 2590,
      "şun": 2591,
      "eğitimi": 2592,
      "döndü": 2593,
      "tanıt": 2594,
      "emir": 2595,
      "avustralya": 2596,
      "belirli": 2597,
      "tığı": 2598,
      "yazdı": 2599,
      "klasik": 2600,
      "bazen": 2601,
      "yeşil": 2602,
      "eurovision": 2603,
      "lamen": 2604,
      "fan": 2605,
      "yönelik": 2606,
      "yunanistan": 2607,
      "kanada": 2608,
      "dünyaya": 2609,
      "ograf": 2610,
      "yöneti": 2611,
      "park": 2612,
      "eği": 2613,
      "imini": 2614,
      "katılım": 2615,
      "antlaş": 2616,
      "polonya": 2617,
      "sürekli": 2618,
      "bilmektedir": 2619,
      "emin": 2620,
      "ilya": 2621,
      "doğusunda": 2622,
      "latin": 2623,
      "etkili": 2624,
      "kesin": 2625,
      "alındı": 2626,
      "civar": 2627,
      "tarihli": 2628,
      "uluğu": 2629,
      "manı": 2630,
      "pt": 2631,
      "vaz": 2632,
      "yoktur": 2633,
      "kalı": 2634,
      "zer": 2635,
      "savunma": 2636,
      "day": 2637,
      "ilerinin": 2638,
      "şidde": 2639,
      "üle": 2640,
      "orijin": 2641,
      "katal": 2642,
      "ermeni": 2643,
      "milletvekili": 2644,
      "gue": 2645,
      "hastalık": 2646,
      "alarının": 2647,
      "sayesinde": 2648,
      "ayrıldı": 2649,
      "olog": 2650,
      "başlangıç": 2651,
      "karşılık": 2652,
      "lılık": 2653,
      "mümkün": 2654,
      "hakim": 2655,
      "alarını": 2656,
      "cev": 2657,
      "nas": 2658,
      "vik": 2659,
      "matematik": 2660,
      "mc": 2661,
      "fc": 2662,
      "ex": 2663,
      "yerli": 2664,
      "elere": 2665,
      "mahall": 2666,
      "ray": 2667,
      "bilecek": 2668,
      "ğından": 2669,
      "yazdığı": 2670,
      "koç": 2671,
      "kıbr": 2672,
      "imzal": 2673,
      "görüntü": 2674,
      "ödülleri": 2675,
      "halinde": 2676,
      "çuk": 2677,
      "ılmaya": 2678,
      "kürt": 2679,
      "hanedan": 2680,
      "bilimsel": 2681,
      "kıbrıs": 2682,
      "gazete": 2683,
      "değişiklik": 2684,
      "işi": 2685,
      "ang": 2686,
      "siyasetçi": 2687,
      "fenerbahçe": 2688,
      "kişinin": 2689,
      "viç": 2690,
      "vis": 2691,
      "eksiyon": 2692,
      "ester": 2693,
      "stüdyo": 2694,
      "hep": 2695,
      "kit": 2696,
      "off": 2697,
      "albümün": 2698,
      "tamamladı": 2699,
      "bos": 2700,
      "ırlar": 2701,
      "lenin": 2702,
      "hindistan": 2703,
      "gösterir": 2704,
      "etkisi": 2705,
      "derin": 2706,
      "sava": 2707,
      "kanun": 2708,
      "parlamen": 2709,
      "tahmin": 2710,
      "tutuk": 2711,
      "siyah": 2712,
      "edik": 2713,
      "üstü": 2714,
      "kulübü": 2715,
      "hollanda": 2716,
      "diya": 2717,
      "wn": 2718,
      "elç": 2719,
      "üzerindeki": 2720,
      "ahmet": 2721,
      "hastan": 2722,
      "brez": 2723,
      "izi": 2724,
      "bakım": 2725,
      "yıllar": 2726,
      "ilçesinde": 2727,
      "oyuncusu": 2728,
      "yüzölç": 2729,
      "liğe": 2730,
      "eşi": 2731,
      "hon": 2732,
      "standart": 2733,
      "çer": 2734,
      "britan": 2735,
      "trab": 2736,
      "ilçenin": 2737,
      "onomi": 2738,
      "deli": 2739,
      "mac": 2740,
      "yapmak": 2741,
      "hır": 2742,
      "ğunu": 2743,
      "ie": 2744,
      "doğum": 2745,
      "trabzon": 2746,
      "ülü": 2747,
      "otur": 2748,
      "pir": 2749,
      "laması": 2750,
      "süreç": 2751,
      "alığı": 2752,
      "yukarı": 2753,
      "saf": 2754,
      "star": 2755,
      "söyledi": 2756,
      "yönetimi": 2757,
      "kazanmıştır": 2758,
      "ksiyon": 2759,
      "ölümü": 2760,
      "yanlı": 2761,
      "hatta": 2762,
      "gelmiştir": 2763,
      "ius": 2764,
      "köyü": 2765,
      "gece": 2766,
      "anti": 2767,
      "ney": 2768,
      "menin": 2769,
      "muham": 2770,
      "mışlardır": 2771,
      "cr": 2772,
      "başbakan": 2773,
      "korun": 2774,
      "gücü": 2775,
      "internet": 2776,
      "ation": 2777,
      "orijinal": 2778,
      "oynanan": 2779,
      "larındaki": 2780,
      "performans": 2781,
      "by": 2782,
      "nerede": 2783,
      "wit": 2784,
      "ble": 2785,
      "görevi": 2786,
      "ght": 2787,
      "endü": 2788,
      "ebe": 2789,
      "ortam": 2790,
      "ruh": 2791,
      "şte": 2792,
      "lamalar": 2793,
      "çekim": 2794,
      "ata": 2795,
      "ford": 2796,
      "yerleştir": 2797,
      "kurulmuş": 2798,
      "kişilik": 2799,
      "kadınlar": 2800,
      "ilçesi": 2801,
      "yaşa": 2802,
      "saha": 2803,
      "taşıyan": 2804,
      "bakır": 2805,
      "ildiği": 2806,
      "asl": 2807,
      "web": 2808,
      "psik": 2809,
      "batısında": 2810,
      "samsun": 2811,
      "kullanıcı": 2812,
      "gos": 2813,
      "ms": 2814,
      "evren": 2815,
      "özellikleri": 2816,
      "yaşadı": 2817,
      "lıkla": 2818,
      "lou": 2819,
      "adında": 2820,
      "durumda": 2821,
      "genin": 2822,
      "fonksiyon": 2823,
      "çıkmıştır": 2824,
      "bayr": 2825,
      "ves": 2826,
      "cep": 2827,
      "öne": 2828,
      "gösteren": 2829,
      "jos": 2830,
      "arkadaşı": 2831,
      "komünist": 2832,
      "birleştir": 2833,
      "olar": 2834,
      "doğrudan": 2835,
      "ino": 2836,
      "astronom": 2837,
      "plak": 2838,
      "şam": 2839,
      "lığa": 2840,
      "sırasıyla": 2841,
      "teles": 2842,
      "tarz": 2843,
      "berlin": 2844,
      "arab": 2845,
      "kendisini": 2846,
      "ailesi": 2847,
      "rast": 2848,
      "yerek": 2849,
      "ark": 2850,
      "alma": 2851,
      "dık": 2852,
      "ortalama": 2853,
      "otomo": 2854,
      "açıkladı": 2855,
      "ski": 2856,
      "nasıl": 2857,
      "şık": 2858,
      "kaliforni": 2859,
      "bölümünde": 2860,
      "bundan": 2861,
      "profesör": 2862,
      "devrim": 2863,
      "etmeye": 2864,
      "çoğunlukla": 2865,
      "ple": 2866,
      "abet": 2867,
      "kaliforniya": 2868,
      "cins": 2869,
      "rey": 2870,
      "kah": 2871,
      "dini": 2872,
      "edin": 2873,
      "acı": 2874,
      "gürcü": 2875,
      "başlı": 2876,
      "hael": 2877,
      "meş": 2878,
      "rapor": 2879,
      "evli": 2880,
      "kuşat": 2881,
      "etraf": 2882,
      "sap": 2883,
      "ayna": 2884,
      "vad": 2885,
      "kova": 2886,
      "rul": 2887,
      "nav": 2888,
      "ukr": 2889,
      "durumu": 2890,
      "deste": 2891,
      "onları": 2892,
      "cistan": 2893,
      "üyeli": 2894,
      "tercih": 2895,
      "hükümdar": 2896,
      "hücr": 2897,
      "kullanarak": 2898,
      "ettir": 2899,
      "süren": 2900,
      "gitti": 2901,
      "meclisi": 2902,
      "başrol": 2903,
      "ers": 2904,
      "kısım": 2905,
      "gra": 2906,
      "yapmaktadır": 2907,
      "kurucu": 2908,
      "kör": 2909,
      "tarihleri": 2910,
      "girişim": 2911,
      "görülür": 2912,
      "esindeki": 2913,
      "isviç": 2914,
      "şair": 2915,
      "ırken": 2916,
      "ındır": 2917,
      "denk": 2918,
      "koşul": 2919,
      "takımyıldızı": 2920,
      "terim": 2921,
      "işaret": 2922,
      "eleme": 2923,
      "etkilen": 2924,
      "orada": 2925,
      "çocuğu": 2926,
      "isinden": 2927,
      "kanıt": 2928,
      "evr": 2929,
      "ternat": 2930,
      "pik": 2931,
      "uc": 2932,
      "okal": 2933,
      "kayde": 2934,
      "kişisel": 2935,
      "gürcistan": 2936,
      "baba": 2937,
      "sabit": 2938,
      "yüzünde": 2939,
      "gec": 2940,
      "başta": 2941,
      "çaplı": 2942,
      "kının": 2943,
      "dolayısıyla": 2944,
      "sir": 2945,
      "liğine": 2946,
      "enstitüsü": 2947,
      "paul": 2948,
      "gelmektedir": 2949,
      "elerine": 2950,
      "sok": 2951,
      "güc": 2952,
      "ölçüde": 2953,
      "pos": 2954,
      "kullanılmaktadır": 2955,
      "erkes": 2956,
      "beşik": 2957,
      "sağlar": 2958,
      "terk": 2959,
      "hüs": 2960,
      "muhammed": 2961,
      "teri": 2962,
      "ilgi": 2963,
      "yılındaki": 2964,
      "akadem": 2965,
      "kasab": 2966,
      "kemal": 2967,
      "mill": 2968,
      "cid": 2969,
      "çiler": 2970,
      "yetiştir": 2971,
      "sebeb": 2972,
      "turnuv": 2973,
      "kons": 2974,
      "ima": 2975,
      "alarına": 2976,
      "ny": 2977,
      "krallığı": 2978,
      "gümüş": 2979,
      "ılımı": 2980,
      "aslında": 2981,
      "finalde": 2982,
      "strat": 2983,
      "derne": 2984,
      "şiddet": 2985,
      "michael": 2986,
      "verilmiştir": 2987,
      "yerini": 2988,
      "öncesi": 2989,
      "pres": 2990,
      "yarar": 2991,
      "açısından": 2992,
      "malıdır": 2993,
      "bara": 2994,
      "sus": 2995,
      "mektu": 2996,
      "itesi": 2997,
      "ştan": 2998,
      "uefa": 2999,
      "cy": 3000,
      "sosyalist": 3001,
      "alara": 3002,
      "haç": 3003,
      "düşünül": 3004,
      "atör": 3005,
      "eylem": 3006,
      "yazılım": 3007,
      "adamı": 3008,
      "stein": 3009,
      "söyler": 3010,
      "kararı": 3011,
      "gitar": 3012,
      "uyordu": 3013,
      "yemek": 3014,
      "keşfedilmiştir": 3015,
      "oluşturur": 3016,
      "ticari": 3017,
      "lisesi": 3018,
      "etkinlik": 3019,
      "cilik": 3020,
      "ceph": 3021,
      "filmde": 3022,
      "festiv": 3023,
      "takımın": 3024,
      "koz": 3025,
      "festivali": 3026,
      "lenmesi": 3027,
      "vo": 3028,
      "aktar": 3029,
      "belg": 3030,
      "arada": 3031,
      "dans": 3032,
      "gizli": 3033,
      "bahar": 3034,
      "şehrinde": 3035,
      "kullanılmıştır": 3036,
      "benim": 3037,
      "yem": 3038,
      "ordus": 3039,
      "nokta": 3040,
      "dönemin": 3041,
      "ülkede": 3042,
      "jon": 3043,
      "şöyle": 3044,
      "way": 3045,
      "enerj": 3046,
      "belli": 3047,
      "muhareb": 3048,
      "yansı": 3049,
      "ung": 3050,
      "kabil": 3051,
      "yetiş": 3052,
      "etim": 3053,
      "sivil": 3054,
      "istem": 3055,
      "james": 3056,
      "sınırları": 3057,
      "plat": 3058,
      "bulunmuştur": 3059,
      "programı": 3060,
      "almış": 3061,
      "dizisi": 3062,
      "ward": 3063,
      "hala": 3064,
      "süt": 3065,
      "hayatını": 3066,
      "vey": 3067,
      "yasak": 3068,
      "görevini": 3069,
      "jack": 3070,
      "kaydet": 3071,
      "tane": 3072,
      "teleskop": 3073,
      "uri": 3074,
      "karma": 3075,
      "tasında": 3076,
      "baskı": 3077,
      "dağıt": 3078,
      "kural": 3079,
      "yüzden": 3080,
      "fre": 3081,
      "metin": 3082,
      "robert": 3083,
      "müziği": 3084,
      "oft": 3085,
      "buk": 3086,
      "david": 3087,
      "uzman": 3088,
      "yavaş": 3089,
      "ag": 3090,
      "zarar": 3091,
      "tom": 3092,
      "hum": 3093,
      "fri": 3094,
      "ıcı": 3095,
      "yacak": 3096,
      "kaybet": 3097,
      "malzem": 3098,
      "rit": 3099,
      "rekor": 3100,
      "kök": 3101,
      "üretilen": 3102,
      "zaf": 3103,
      "çö": 3104,
      "ikti": 3105,
      "isyan": 3106,
      "elerinden": 3107,
      "ht": 3108,
      "cumhurbaşkanı": 3109,
      "ferans": 3110,
      "vatandaş": 3111,
      "kütüp": 3112,
      "ment": 3113,
      "che": 3114,
      "niş": 3115,
      "neredeyse": 3116,
      "mekteydi": 3117,
      "halif": 3118,
      "fikir": 3119,
      "takımında": 3120,
      "udi": 3121,
      "ling": 3122,
      "kutsal": 3123,
      "dolar": 3124,
      "bahs": 3125,
      "yaşadığı": 3126,
      "vermiştir": 3127,
      "boğaz": 3128,
      "ısına": 3129,
      "pri": 3130,
      "beşiktaş": 3131,
      "basit": 3132,
      "kesim": 3133,
      "uştur": 3134,
      "baz": 3135,
      "moskova": 3136,
      "uyor": 3137,
      "toplantı": 3138,
      "yayınladı": 3139,
      "que": 3140,
      "araştırmalar": 3141,
      "denir": 3142,
      "aleti": 3143,
      "iklim": 3144,
      "ash": 3145,
      "giren": 3146,
      "air": 3147,
      "arnav": 3148,
      "ündeki": 3149,
      "vin": 3150,
      "günlük": 3151,
      "kılı": 3152,
      "county": 3153,
      "mevcuttur": 3154,
      "alınan": 3155,
      "itir": 3156,
      "ıv": 3157,
      "ükle": 3158,
      "etkile": 3159,
      "beden": 3160,
      "mesaf": 3161,
      "arnavut": 3162,
      "tehlik": 3163,
      "dat": 3164,
      "bitk": 3165,
      "uma": 3166,
      "sağlayan": 3167,
      "akım": 3168,
      "üyeleri": 3169,
      "jer": 3170,
      "kemer": 3171,
      "bursa": 3172,
      "yapılmış": 3173,
      "ılığı": 3174,
      "ilerle": 3175,
      "sert": 3176,
      "düşünc": 3177,
      "yapılır": 3178,
      "hac": 3179,
      "etme": 3180,
      "çiç": 3181,
      "çevre": 3182,
      "kültürel": 3183,
      "oynadığı": 3184,
      "urum": 3185,
      "rahat": 3186,
      "lanmaktadır": 3187,
      "okyan": 3188,
      "insanlar": 3189,
      "yargı": 3190,
      "danış": 3191,
      "lasyon": 3192,
      "oluştu": 3193,
      "teknoloj": 3194,
      "üyor": 3195,
      "düşman": 3196,
      "yapısı": 3197,
      "lığın": 3198,
      "wood": 3199,
      "itik": 3200,
      "fiziksel": 3201,
      "kapı": 3202,
      "bazıları": 3203,
      "nün": 3204,
      "insanların": 3205,
      "anlar": 3206,
      "işe": 3207,
      "ekran": 3208,
      "kilise": 3209,
      "pey": 3210,
      "kuzeyinde": 3211,
      "gelecek": 3212,
      "iletişim": 3213,
      "onay": 3214,
      "undaki": 3215,
      "ğinin": 3216,
      "ula": 3217,
      "ura": 3218,
      "cis": 3219,
      "hafif": 3220,
      "mag": 3221,
      "içeri": 3222,
      "egem": 3223,
      "nü": 3224,
      "are": 3225,
      "edilmesi": 3226,
      "içindeki": 3227,
      "geçirdi": 3228,
      "uvar": 3229,
      "atom": 3230,
      "lıdır": 3231,
      "iktidar": 3232,
      "büyü": 3233,
      "şarkının": 3234,
      "belç": 3235,
      "diplo": 3236,
      "katalog": 3237,
      "ceza": 3238,
      "içine": 3239,
      "arjan": 3240,
      "sonradan": 3241,
      "şer": 3242,
      "almak": 3243,
      "tb": 3244,
      "sanayi": 3245,
      "odak": 3246,
      "kapat": 3247,
      "ulaştı": 3248,
      "sene": 3249,
      "arjantin": 3250,
      "yağı": 3251,
      "liste": 3252,
      "sektör": 3253,
      "akdeniz": 3254,
      "ölmüştür": 3255,
      "yaşamak": 3256,
      "tören": 3257,
      "alama": 3258,
      "bı": 3259,
      "götür": 3260,
      "ekonomi": 3261,
      "çay": 3262,
      "çekir": 3263,
      "mesinden": 3264,
      "ukrayna": 3265,
      "mız": 3266,
      "sürüm": 3267,
      "heykel": 3268,
      "ulur": 3269,
      "makin": 3270,
      "amıştır": 3271,
      "disi": 3272,
      "sorumlu": 3273,
      "kullanımı": 3274,
      "bill": 3275,
      "çağı": 3276,
      "hy": 3277,
      "takımının": 3278,
      "kadro": 3279,
      "sınıflandır": 3280,
      "koruma": 3281,
      "ob": 3282,
      "egemen": 3283,
      "ağırlık": 3284,
      "olik": 3285,
      "genelde": 3286,
      "kaynağı": 3287,
      "kökenli": 3288,
      "selçuk": 3289,
      "kendine": 3290,
      "onların": 3291,
      "aşırı": 3292,
      "ilerde": 3293,
      "silahlı": 3294,
      "fıfa": 3295,
      "aracılığı": 3296,
      "isviçre": 3297,
      "lerce": 3298,
      "zam": 3299,
      "maden": 3300,
      "şampiyonu": 3301,
      "ft": 3302,
      "anne": 3303,
      "oğul": 3304,
      "itti": 3305,
      "geçiş": 3306,
      "leh": 3307,
      "bitki": 3308,
      "çapında": 3309,
      "kulübünde": 3310,
      "cus": 3311,
      "belediyesi": 3312,
      "britanya": 3313,
      "olmadığı": 3314,
      "istat": 3315,
      "medya": 3316,
      "jim": 3317,
      "atandı": 3318,
      "alandı": 3319,
      "bilinmektedir": 3320,
      "yayımlanan": 3321,
      "ld": 3322,
      "komp": 3323,
      "yardımcısı": 3324,
      "kod": 3325,
      "sho": 3326,
      "antal": 3327,
      "babasının": 3328,
      "uygulama": 3329,
      "ore": 3330,
      "başlarında": 3331,
      "ınar": 3332,
      "gördü": 3333,
      "göstermektedir": 3334,
      "isten": 3335,
      "ig": 3336,
      "ölümünden": 3337,
      "hakkı": 3338,
      "lili": 3339,
      "esas": 3340,
      "yerde": 3341,
      "phil": 3342,
      "yaptır": 3343,
      "kos": 3344,
      "rö": 3345,
      "kanat": 3346,
      "kullanıldı": 3347,
      "peter": 3348,
      "ctor": 3349,
      "henüz": 3350,
      "haval": 3351,
      "mağlu": 3352,
      "moğ": 3353,
      "ilinde": 3354,
      "tılı": 3355,
      "açtı": 3356,
      "dit": 3357,
      "layarak": 3358,
      "gerekti": 3359,
      "ted": 3360,
      "lılar": 3361,
      "moğol": 3362,
      "ulmuştur": 3363,
      "lamaya": 3364,
      "dönüştür": 3365,
      "bran": 3366,
      "yaşan": 3367,
      "sağladı": 3368,
      "bür": 3369,
      "türkmen": 3370,
      "davranış": 3371,
      "gro": 3372,
      "ust": 3373,
      "ano": 3374,
      "ressam": 3375,
      "uydu": 3376,
      "bölün": 3377,
      "meslek": 3378,
      "sivas": 3379,
      "sebebiyle": 3380,
      "frank": 3381,
      "otomobil": 3382,
      "all": 3383,
      "mesinin": 3384,
      "lise": 3385,
      "gökyüzünde": 3386,
      "hükümet": 3387,
      "vokal": 3388,
      "mavi": 3389,
      "telefon": 3390,
      "kilisesi": 3391,
      "mün": 3392,
      "reak": 3393,
      "birinc": 3394,
      "lığında": 3395,
      "oynan": 3396,
      "memek": 3397,
      "sembol": 3398,
      "lenme": 3399,
      "zayı": 3400,
      "başarısız": 3401,
      "asından": 3402,
      "cileri": 3403,
      "wer": 3404,
      "akademisi": 3405,
      "city": 3406,
      "katılan": 3407,
      "alanda": 3408,
      "ud": 3409,
      "cası": 3410,
      "ulmuş": 3411,
      "derneği": 3412,
      "güncel": 3413,
      "ington": 3414,
      "ıma": 3415,
      "endüstr": 3416,
      "yade": 3417,
      "sağlamak": 3418,
      "özerk": 3419,
      "yayımlandı": 3420,
      "kilomet": 3421,
      "zayıf": 3422,
      "makam": 3423,
      "oyunları": 3424,
      "teşkil": 3425,
      "akıl": 3426,
      "numar": 3427,
      "ire": 3428,
      "teslim": 3429,
      "brezilya": 3430,
      "ılmak": 3431,
      "olas": 3432,
      "kategor": 3433,
      "feri": 3434,
      "onur": 3435,
      "işçi": 3436,
      "hasan": 3437,
      "bra": 3438,
      "eseri": 3439,
      "isiyle": 3440,
      "şart": 3441,
      "kamer": 3442,
      "emiştir": 3443,
      "geze": 3444,
      "isyen": 3445,
      "biçimde": 3446,
      "dost": 3447,
      "yükseldi": 3448,
      "ndeki": 3449,
      "chr": 3450,
      "sözleşme": 3451,
      "bün": 3452,
      "fabrik": 3453,
      "gören": 3454,
      "oranı": 3455,
      "milli": 3456,
      "nüfusunun": 3457,
      "yoluyla": 3458,
      "yetik": 3459,
      "kenar": 3460,
      "micros": 3461,
      "dakik": 3462,
      "bilgiler": 3463,
      "rahim": 3464,
      "kart": 3465,
      "teleskopla": 3466,
      "chel": 3467,
      "famil": 3468,
      "dakika": 3469,
      "zat": 3470,
      "cının": 3471,
      "zo": 3472,
      "sayılı": 3473,
      "mişlerdir": 3474,
      "eleştirmen": 3475,
      "yatır": 3476,
      "ander": 3477,
      "ilgilen": 3478,
      "çizgi": 3479,
      "oluşmaktadır": 3480,
      "macaristan": 3481,
      "dro": 3482,
      "alex": 3483,
      "ılmasına": 3484,
      "tte": 3485,
      "istasyon": 3486,
      "efendi": 3487,
      "metro": 3488,
      "kişiler": 3489,
      "molek": 3490,
      "müdürlüğü": 3491,
      "müzesi": 3492,
      "havalim": 3493,
      "kalmıştır": 3494,
      "yapmaya": 3495,
      "fransızca": 3496,
      "aki": 3497,
      "onlar": 3498,
      "konstan": 3499,
      "formu": 3500,
      "kov": 3501,
      "süley": 3502,
      "yere": 3503,
      "artır": 3504,
      "toplamda": 3505,
      "fars": 3506,
      "listesinde": 3507,
      "paylaş": 3508,
      "ister": 3509,
      "güreş": 3510,
      "istin": 3511,
      "ağa": 3512,
      "gur": 3513,
      "beste": 3514,
      "süleyman": 3515,
      "norveç": 3516,
      "arapça": 3517,
      "eyaleti": 3518,
      "muştu": 3519,
      "prote": 3520,
      "ihtiyaç": 3521,
      "iklet": 3522,
      "oluştuğu": 3523,
      "çalışmaya": 3524,
      "ğinden": 3525,
      "tival": 3526,
      "lus": 3527,
      "ilişkiler": 3528,
      "süz": 3529,
      "dışişleri": 3530,
      "öldürül": 3531,
      "ücret": 3532,
      "kimyasal": 3533,
      "geçmektedir": 3534,
      "prens": 3535,
      "cha": 3536,
      "festival": 3537,
      "mıyla": 3538,
      "liğin": 3539,
      "gerekli": 3540,
      "oluşturan": 3541,
      "sekret": 3542,
      "kazak": 3543,
      "güneyinde": 3544,
      "federasyonu": 3545,
      "atürk": 3546,
      "laz": 3547,
      "uygulamalar": 3548,
      "bulunma": 3549,
      "atatürk": 3550,
      "uçuş": 3551,
      "kaybetti": 3552,
      "dılar": 3553,
      "tuğ": 3554,
      "klip": 3555,
      "cla": 3556,
      "görülen": 3557,
      "bot": 3558,
      "tle": 3559,
      "soğuk": 3560,
      "bahç": 3561,
      "ebil": 3562,
      "petrol": 3563,
      "tuz": 3564,
      "ğının": 3565,
      "olmadığını": 3566,
      "durdur": 3567,
      "halkı": 3568,
      "kasaba": 3569,
      "mikro": 3570,
      "ertesi": 3571,
      "irlanda": 3572,
      "civarında": 3573,
      "ami": 3574,
      "listesi": 3575,
      "bö": 3576,
      "pozisyonunda": 3577,
      "rap": 3578,
      "pers": 3579,
      "karadeniz": 3580,
      "max": 3581,
      "ikisi": 3582,
      "nar": 3583,
      "yılda": 3584,
      "ague": 3585,
      "adası": 3586,
      "filminde": 3587,
      "sika": 3588,
      "bunlardan": 3589,
      "ılmasını": 3590,
      "george": 3591,
      "rid": 3592,
      "hareketi": 3593,
      "yüzünden": 3594,
      "buldu": 3595,
      "kapasit": 3596,
      "nükle": 3597,
      "başvur": 3598,
      "yaptık": 3599,
      "politika": 3600,
      "ole": 3601,
      "kırım": 3602,
      "mann": 3603,
      "ikinc": 3604,
      "rem": 3605,
      "microsoft": 3606,
      "von": 3607,
      "eki": 3608,
      "masyon": 3609,
      "istatistik": 3610,
      "dom": 3611,
      "yata": 3612,
      "dalg": 3613,
      "ruk": 3614,
      "gölü": 3615,
      "ılıp": 3616,
      "yos": 3617,
      "rüt": 3618,
      "ruz": 3619,
      "eserleri": 3620,
      "karış": 3621,
      "komutanı": 3622,
      "kafkas": 3623,
      "cher": 3624,
      "operasyon": 3625,
      "hafız": 3626,
      "liler": 3627,
      "diyar": 3628,
      "varlık": 3629,
      "world": 3630,
      "teklif": 3631,
      "konseyi": 3632,
      "sıcaklık": 3633,
      "zafer": 3634,
      "hapis": 3635,
      "tbmm": 3636,
      "lendiği": 3637,
      "rok": 3638,
      "aynalı": 3639,
      "olduğuna": 3640,
      "bölgesine": 3641,
      "tesis": 3642,
      "erkekler": 3643,
      "verilir": 3644,
      "manas": 3645,
      "viy": 3646,
      "seçimleri": 3647,
      "aracılığıyla": 3648,
      "dun": 3649,
      "giden": 3650,
      "sıkı": 3651,
      "olmaya": 3652,
      "lediği": 3653,
      "milliyet": 3654,
      "uel": 3655,
      "gas": 3656,
      "yel": 3657,
      "nehir": 3658,
      "üretimi": 3659,
      "yası": 3660,
      "pin": 3661,
      "lardaki": 3662,
      "ciddi": 3663,
      "ismini": 3664,
      "hakları": 3665,
      "ndaki": 3666,
      "galib": 3667,
      "charles": 3668,
      "tabak": 3669,
      "ever": 3670,
      "mür": 3671,
      "maçına": 3672,
      "uzunluğ": 3673,
      "aşk": 3674,
      "gerekir": 3675,
      "öğrenci": 3676,
      "çözüm": 3677,
      "iri": 3678,
      "tank": 3679,
      "tis": 3680,
      "akar": 3681,
      "lideri": 3682,
      "yönel": 3683,
      "hayr": 3684,
      "sig": 3685,
      "kentinde": 3686,
      "getirildi": 3687,
      "hot": 3688,
      "bölgenin": 3689,
      "olduğundan": 3690,
      "ref": 3691,
      "olabile": 3692,
      "blem": 3693,
      "ılış": 3694,
      "organizasyon": 3695,
      "yüzölçümü": 3696,
      "yaparak": 3697,
      "komisyon": 3698,
      "etmesi": 3699,
      "yanlış": 3700,
      "use": 3701,
      "adım": 3702,
      "yaşar": 3703,
      "sahipliği": 3704,
      "ömür": 3705,
      "muharebesi": 3706,
      "yandan": 3707,
      "yaprak": 3708,
      "müzisyen": 3709,
      "beşinci": 3710,
      "real": 3711,
      "kalma": 3712,
      "king": 3713,
      "tri": 3714,
      "yıldır": 3715,
      "karşın": 3716,
      "board": 3717,
      "günde": 3718,
      "stal": 3719,
      "belçika": 3720,
      "attığı": 3721,
      "üreti": 3722,
      "hun": 3723,
      "milyar": 3724,
      "ou": 3725,
      "rü": 3726,
      "büny": 3727,
      "biraz": 3728,
      "çanak": 3729,
      "got": 3730,
      "genişlet": 3731,
      "bulgaristan": 3732,
      "kus": 3733,
      "venedik": 3734,
      "liğinden": 3735,
      "grafik": 3736,
      "harf": 3737,
      "kraliyet": 3738,
      "imparatorluk": 3739,
      "eyle": 3740,
      "mun": 3741,
      "şap": 3742,
      "bölgesel": 3743,
      "önünde": 3744,
      "sky": 3745,
      "taht": 3746,
      "amatör": 3747,
      "sup": 3748,
      "zır": 3749,
      "eg": 3750,
      "meksika": 3751,
      "demokratik": 3752,
      "adalet": 3753,
      "elektronik": 3754,
      "talep": 3755,
      "ört": 3756,
      "kalp": 3757,
      "ional": 3758,
      "milletvekil": 3759,
      "önceleri": 3760,
      "söylen": 3761,
      "ullah": 3762,
      "evlilik": 3763,
      "yahat": 3764,
      "maked": 3765,
      "özelliği": 3766,
      "nedeni": 3767,
      "leyici": 3768,
      "besi": 3769,
      "inşaat": 3770,
      "die": 3771,
      "erzurum": 3772,
      "eline": 3773,
      "ari": 3774,
      "ibrahim": 3775,
      "yir": 3776,
      "imli": 3777,
      "birden": 3778,
      "seyahat": 3779,
      "balkan": 3780,
      "adlandırılan": 3781,
      "konstantin": 3782,
      "meyve": 3783,
      "köprü": 3784,
      "imiz": 3785,
      "işlev": 3786,
      "büyüm": 3787,
      "tus": 3788,
      "hitler": 3789,
      "çor": 3790,
      "şik": 3791,
      "geçici": 3792,
      "luğunu": 3793,
      "başlangıçta": 3794,
      "edir": 3795,
      "arke": 3796,
      "tahta": 3797,
      "ls": 3798,
      "temiz": 3799,
      "katolik": 3800,
      "kuy": 3801,
      "noktası": 3802,
      "liber": 3803,
      "zey": 3804,
      "dere": 3805,
      "iv": 3806,
      "başlıca": 3807,
      "tedavi": 3808,
      "hint": 3809,
      "türkç": 3810,
      "efsan": 3811,
      "müda": 3812,
      "fos": 3813,
      "ağan": 3814,
      "opol": 3815,
      "baraj": 3816,
      "hı": 3817,
      "alarından": 3818,
      "öğrenciler": 3819,
      "gazi": 3820,
      "ilecek": 3821,
      "gezegen": 3822,
      "bolu": 3823,
      "komşu": 3824,
      "adana": 3825,
      "erler": 3826,
      "orkes": 3827,
      "aksine": 3828,
      "dij": 3829,
      "göv": 3830,
      "gemi": 3831,
      "sanatçısı": 3832,
      "hoş": 3833,
      "belirtti": 3834,
      "ücü": 3835,
      "angeles": 3836,
      "nem": 3837,
      "değişim": 3838,
      "geçmiştir": 3839,
      "topluluk": 3840,
      "manastır": 3841,
      "barındır": 3842,
      "black": 3843,
      "gay": 3844,
      "merkezli": 3845,
      "kişidir": 3846,
      "lemesi": 3847,
      "döv": 3848,
      "leye": 3849,
      "gerçekleştirilen": 3850,
      "eld": 3851,
      "mini": 3852,
      "wat": 3853,
      "müsa": 3854,
      "mütte": 3855,
      "karbon": 3856,
      "emr": 3857,
      "sezonun": 3858,
      "şif": 3859,
      "layıcı": 3860,
      "kapsamında": 3861,
      "elerden": 3862,
      "lığının": 3863,
      "konya": 3864,
      "çerçe": 3865,
      "kadros": 3866,
      "karmaşık": 3867,
      "fas": 3868,
      "çeş": 3869,
      "kalıntı": 3870,
      "giydi": 3871,
      "fl": 3872,
      "sırp": 3873,
      "şampiyonluğu": 3874,
      "anlık": 3875,
      "cd": 3876,
      "uzan": 3877,
      "karay": 3878,
      "denizi": 3879,
      "gereken": 3880,
      "hüsey": 3881,
      "ettiler": 3882,
      "dokuz": 3883,
      "çizg": 3884,
      "çıkardı": 3885,
      "andre": 3886,
      "enter": 3887,
      "restor": 3888,
      "gençlik": 3889,
      "yaşındayken": 3890,
      "çam": 3891,
      "köş": 3892,
      "ilişkin": 3893,
      "vb": 3894,
      "yayınlan": 3895,
      "laya": 3896,
      "sürec": 3897,
      "küresel": 3898,
      "günümüze": 3899,
      "dalga": 3900,
      "hop": 3901,
      "yunanca": 3902,
      "dünyada": 3903,
      "gösterdi": 3904,
      "kullanılabilir": 3905,
      "tabi": 3906,
      "istih": 3907,
      "ıyor": 3908,
      "ısını": 3909,
      "univer": 3910,
      "evlendi": 3911,
      "grafi": 3912,
      "çiçek": 3913,
      "takımına": 3914,
      "açıklama": 3915,
      "düşür": 3916,
      "etnik": 3917,
      "oynamak": 3918,
      "giderek": 3919,
      "dile": 3920,
      "olimpiyatları": 3921,
      "recor": 3922,
      "kolon": 3923,
      "renkli": 3924,
      "hatır": 3925,
      "etki": 3926,
      "finale": 3927,
      "edilebilir": 3928,
      "ortadan": 3929,
      "elli": 3930,
      "sözc": 3931,
      "seçilmiştir": 3932,
      "pilot": 3933,
      "kütüphan": 3934,
      "dizinin": 3935,
      "pon": 3936,
      "dijital": 3937,
      "yarışma": 3938,
      "gri": 3939,
      "amik": 3940,
      "sonlarında": 3941,
      "akış": 3942,
      "makal": 3943,
      "alış": 3944,
      "hızla": 3945,
      "grand": 3946,
      "taar": 3947,
      "başlamış": 3948,
      "enf": 3949,
      "dae": 3950,
      "port": 3951,
      "düzenli": 3952,
      "bölgeye": 3953,
      "mail": 3954,
      "sözcü": 3955,
      "dizisinde": 3956,
      "imzaladı": 3957,
      "lemeye": 3958,
      "antalya": 3959,
      "şak": 3960,
      "oynayan": 3961,
      "üyeliği": 3962,
      "tiyatrosu": 3963,
      "aralarında": 3964,
      "yasası": 3965,
      "amet": 3966,
      "ene": 3967,
      "kullanan": 3968,
      "düs": 3969,
      "ikili": 3970,
      "vermektedir": 3971,
      "hazırlık": 3972,
      "uluğ": 3973,
      "parlak": 3974,
      "istifa": 3975,
      "nba": 3976,
      "liga": 3977,
      "toplumsal": 3978,
      "çab": 3979,
      "rez": 3980,
      "jean": 3981,
      "bron": 3982,
      "nesn": 3983,
      "biyograf": 3984,
      "hidro": 3985,
      "sayımı": 3986,
      "çet": 3987,
      "azalt": 3988,
      "gerektir": 3989,
      "ding": 3990,
      "problem": 3991,
      "yönetmenliğini": 3992,
      "birbirine": 3993,
      "şehirde": 3994,
      "süs": 3995,
      "antren": 3996,
      "çalıştır": 3997,
      "halkın": 3998,
      "ss": 3999
    },
    "merges": [
      "a r",
      "a n",
      "e r",
      "i n",
      "ı n",
      "e n",
      "i r",
      "i l",
      "a l",
      "d a",
      "d e",
      "a k",
      "o l",
      "y a",
      "v e",
      "e l",
      "o n",
      "l ar",
      "m a",
      "u n",
      "e t",
      "e k",
      "ı r",
      "i s",
      "e s",
      "b ir",
      "i k",
      "l a",
      "l er",
      "ı l",
      "o r",
      "a s",
      "u r",
      "a t",
      "u l",
      "a y",
      "ş t",
      "l e",
      "d i",
      "ın da",
      "d ı",
      "ü n",
      "t e",
      "t a",
      "b a",
      "i m",
      "ü r",
      "i y",
      "a m",
      "d an",
      "l ı",
      "d en",
      "i t",
      "l i",
      "k a",
      "in de",
      "s a",
      "k i",
      "e y",
      "l an",
      "e m",
      "d u",
      "b u",
      "d ir",
      "ö n",
      "d ır",
      "m ı",
      "t ar",
      "y ıl",
      "ö r",
      "in e",
      "r a",
      "h a",
      "s ı",
      "ar ak",
      "i ş",
      "i ç",
      "u s",
      "i z",
      "il e",
      "ü z",
      "s on",
      "ı k",
      "t i",
      "o k",
      "t an",
      "ba ş",
      "es i",
      "ğ ı",
      "lar ı",
      "ol arak",
      "ü k",
      "in i",
      "k ar",
      "ın dan",
      "r o",
      "ya p",
      "ü m",
      "e v",
      "e d",
      "m ak",
      "ü l",
      "u m",
      "ın ı",
      "m i",
      "ı m",
      "er i",
      "b il",
      "e z",
      "o ğ",
      "in in",
      "b ul",
      "s t",
      "ler i",
      "şt ir",
      "ın a",
      "ö l",
      "m an",
      "ı ş",
      "c a",
      "c e",
      "ğ i",
      "o y",
      "< /",
      "g ör",
      "o s",
      "şt ır",
      "k ı",
      "m u",
      "k en",
      "v er",
      "a f",
      "l ik",
      "g el",
      "al ar",
      "iç in",
      "t ür",
      "t ı",
      "y er",
      "m ek",
      "l u",
      "g e",
      "y an",
      "o p",
      "ol an",
      "i h",
      "ö z",
      "n e",
      "a z",
      "ın ın",
      "il er",
      "u z",
      "g i",
      "m e",
      "ol du",
      "ü y",
      "as ı",
      "mı ştır",
      "r u",
      "k ur",
      "p ar",
      "l en",
      "tar af",
      "k ul",
      "s e",
      "a d",
      "yıl ında",
      "u t",
      "c i",
      "b i",
      "is i",
      "g en",
      "ol u",
      "as ında",
      "k on",
      "y ar",
      "o m",
      "d er",
      "ma sı",
      "e ş",
      "al ı",
      "taraf ından",
      "a ş",
      "bul un",
      "ç ık",
      "g ün",
      "h al",
      "s i",
      "son ra",
      "d ü",
      "c ak",
      "y on",
      "tar ih",
      "c ı",
      "il k",
      "t er",
      "c h",
      "mi ştir",
      "t ak",
      "d ar",
      "k an",
      "lı k",
      "al an",
      "c u",
      "il m",
      "r e",
      "i p",
      "ö y",
      "y la",
      "s an",
      "ta dır",
      "y en",
      "a b",
      "da ha",
      "el er",
      "b öl",
      "is t",
      "ğ u",
      "ma s",
      "o t",
      "tür k",
      "b el",
      "n in",
      "te m",
      "m en",
      "kul lan",
      "ya z",
      "d oğ",
      "in den",
      "t r",
      "ç ok",
      "k al",
      "ar a",
      "un da",
      "d ur",
      "ş ı",
      "t ek",
      "de v",
      "n ın",
      "k at",
      "g er",
      "s ür",
      "d ön",
      "ay ı",
      "lar ın",
      "ü ç",
      "n a",
      "iy e",
      "y ı",
      "ge ç",
      "a da",
      "b üy",
      "v ar",
      "mak tadır",
      "m ü",
      "mek te",
      "ş e",
      "r i",
      "is e",
      "l et",
      "g ö",
      "k u",
      "şt ur",
      "oy un",
      "y ön",
      "mı ş",
      "üz er",
      "ed il",
      "s u",
      "in g",
      "ya ş",
      "t op",
      "a ğ",
      "ç ek",
      "er k",
      "ay r",
      "s el",
      "ba ğ",
      "h e",
      "s ır",
      "ıl an",
      "il i",
      "un u",
      "büy ük",
      "la ş",
      "m ar",
      "k o",
      "a v",
      "p ro",
      "is tan",
      "sa h",
      "ar asında",
      "r an",
      "iy le",
      "s al",
      "y e",
      "dı ğı",
      "h ar",
      "ya y",
      "di ğ",
      "mekte dir",
      "am an",
      "şe h",
      "ay n",
      "sa v",
      "b e",
      "m et",
      "a ma",
      "h er",
      "i f",
      "gi bi",
      "de ğ",
      "h an",
      "b un",
      "baş la",
      "es ine",
      "ç al",
      "b er",
      "ik i",
      "et i",
      "a p",
      "y ak",
      "le ş",
      "ar ı",
      "o v",
      "d ün",
      "m alar",
      "d ür",
      "al t",
      "il en",
      "y üz",
      "yen i",
      "ey e",
      "u y",
      "p or",
      "ş ar",
      "a h",
      "il ç",
      "z ı",
      "s er",
      "z aman",
      "l ü",
      "bil ir",
      "ka dar",
      "or du",
      "ler in",
      "b at",
      "ıl ı",
      "ru p",
      "lar ında",
      "çal ış",
      "ul u",
      "a dı",
      "r en",
      "f or",
      "es inde",
      "b ak",
      "t ur",
      "y ük",
      "ka z",
      "kar şı",
      "ma ya",
      "b ol",
      "et ti",
      "iy on",
      "k öy",
      "ve ya",
      "k r",
      "da ki",
      "st er",
      "öz el",
      "ya t",
      "dön em",
      "f a",
      "gen el",
      "gör e",
      "s ek",
      "ü t",
      "ıl dı",
      "g ir",
      "m erk",
      "merk ez",
      "a ç",
      "tak ım",
      "t en",
      "mu ştur",
      "la m",
      "b as",
      "e ğ",
      "am p",
      "b ur",
      "li ği",
      "m iş",
      "m o",
      "f ilm",
      "b o",
      "dün ya",
      "lar da",
      "or ta",
      "i b",
      "g u",
      "gör ev",
      "de ki",
      "bir lik",
      "şar kı",
      "t ir",
      "d üz",
      "im i",
      "di ği",
      "m il",
      "sav aş",
      "ra f",
      "bağ lı",
      "ş i",
      "ka p",
      "el i",
      "am er",
      "ş ek",
      "ik a",
      "ü s",
      "us u",
      "ha z",
      "sa ğ",
      "diğ er",
      "in ci",
      "gö ster",
      "se ç",
      "sı z",
      "an s",
      "ayr ı",
      "an cak",
      "k ay",
      "dü ş",
      "le m",
      "lı ğı",
      "s ez",
      "c ek",
      "dev let",
      "ü f",
      "ol o",
      "k as",
      "r es",
      "ayn ı",
      "et k",
      "ş u",
      "ma ç",
      "p er",
      "h ak",
      "lar a",
      "oldu ğu",
      "iy et",
      "k or",
      "al ık",
      "kaz an",
      "ç e",
      "al b",
      "sah ip",
      "m üz",
      "tarih inde",
      "v an",
      "ar d",
      "v i",
      "sez on",
      "il di",
      "c k",
      "c an",
      "lar ını",
      "ı s",
      "l o",
      "e de",
      "ma yı",
      "m es",
      "t ır",
      "türk iye",
      "f ar",
      "ç a",
      "f ran",
      "s en",
      "n üf",
      "yay ın",
      "ler ini",
      "alb üm",
      "y ol",
      "ün de",
      "ö ğ",
      "baş kan",
      "a de",
      "t o",
      "t he",
      "yön et",
      "e di",
      "ğ ını",
      "s it",
      "ne den",
      "bulun an",
      "p ol",
      "ül k",
      "o f",
      "r ak",
      "as yon",
      "p i",
      "bel ir",
      "birlik te",
      "i ver",
      "b an",
      "t ik",
      "f er",
      "n i",
      "y et",
      "ön em",
      "k ö",
      "es ki",
      "şt ı",
      "yap tı",
      "yap ı",
      "n de",
      "ken d",
      "ed er",
      "v a",
      "m al",
      "el e",
      "li ğ",
      "s il",
      "g al",
      "el eri",
      "son u",
      "böl üm",
      "s ay",
      "şeh ir",
      "b en",
      "lar ının",
      "s is",
      "y or",
      "ger çek",
      "c ü",
      "ar t",
      "f ak",
      "h at",
      "d o",
      "g r",
      "ayrı ca",
      "s ayı",
      "un un",
      "il eri",
      "k m",
      "ler inde",
      "y al",
      "d ik",
      "iy i",
      "ka d",
      "an a",
      "i d",
      "al dı",
      "m esi",
      "ün iver",
      "kur ul",
      "ya s",
      "a çık",
      "c ar",
      "gel en",
      "olo j",
      "al man",
      "h em",
      "f ut",
      "un a",
      "t ör",
      "ul us",
      "t u",
      "ıl ır",
      "ing il",
      "lik le",
      "la ma",
      "oldu ğ",
      "olu ş",
      "r us",
      "ün ü",
      "ı z",
      "h as",
      "yük sek",
      "b it",
      "d ül",
      "c o",
      "ler inin",
      "ey i",
      "b ar",
      "fut bol",
      "k om",
      "ol ma",
      "g ü",
      "k uz",
      "n da",
      "ü st",
      "t es",
      "f in",
      "kar a",
      "düz en",
      "di z",
      "lar ına",
      "far k",
      "b r",
      "ler de",
      "b in",
      "h ur",
      "ad lı",
      "in san",
      "iç er",
      "la dı",
      "s öz",
      "d ol",
      "h o",
      "lu k",
      "g an",
      "ba zı",
      "başla dı",
      "k ol",
      "t üm",
      "önem li",
      "bil in",
      "r ol",
      "t on",
      "t el",
      "böl g",
      "s at",
      "t in",
      "ü ş",
      "d in",
      "h u",
      "ı ı",
      "şek il",
      "ilç esine",
      "al i",
      "eş it",
      "ön ce",
      "den iz",
      "öy le",
      "ir an",
      "dı ş",
      "istan bul",
      "kon u",
      "d al",
      "le ştir",
      "iç inde",
      "san at",
      "c um",
      "g az",
      "ıl mıştır",
      "n un",
      "m ez",
      "an ı",
      "r et",
      "kuz ey",
      "gün ey",
      "ç o",
      "l is",
      "d il",
      "p o",
      "ger ek",
      "ç ı",
      "üniver sit",
      "sür e",
      "k il",
      "bir i",
      "ür et",
      "ö dül",
      "yap ılan",
      "av rup",
      "aş a",
      "ik inci",
      "g rup",
      "t or",
      "v en",
      "de m",
      "olu ştur",
      "f i",
      "h i",
      "eğ it",
      "lan dı",
      "k ır",
      "g et",
      "f az",
      "lar dan",
      "alar ı",
      "f es",
      "t as",
      "lan dır",
      "s or",
      "t al",
      "f il",
      "g ru",
      "d y",
      "ta ma",
      "ş amp",
      "yar ış",
      "g a",
      "şamp iyon",
      "ler e",
      "e den",
      "er ek",
      "ç ev",
      "avrup a",
      "kar iy",
      "p an",
      "uz un",
      "s por",
      "bir çok",
      "mas ına",
      "os man",
      "ma hal",
      "s un",
      "ta ş",
      "cum hur",
      "değ iş",
      "ol muştur",
      "ço cu",
      "lan an",
      "y u",
      "ki ta",
      "dur um",
      "uz ak",
      "kr al",
      "s in",
      "m er",
      "ç i",
      "len dir",
      "k et",
      "t os",
      "ki ş",
      "n is",
      "k es",
      "get ir",
      "ka ç",
      "ü p",
      "şekil de",
      "bir leş",
      "ler inden",
      "g öz",
      "ler ine",
      "üzer inde",
      "ol a",
      "dev am",
      "var dır",
      "mu ş",
      "u k",
      "ar ası",
      "g o",
      "ıl ık",
      "üzer ine",
      "lar ından",
      "il ik",
      "ında ki",
      "an la",
      "i ştir",
      "b es",
      "g ür",
      "h am",
      "il g",
      "mar t",
      "k üç",
      "it ib",
      "oğ raf",
      "ş a",
      "olduğ unu",
      "ç eşit",
      "üniversit esi",
      "b ay",
      "as k",
      "is im",
      "ta h",
      "ç oğ",
      "il miştir",
      "en in",
      "m eye",
      "üzer e",
      "ı mı",
      "k ez",
      "amer ik",
      "at or",
      "yaş am",
      "p r",
      "b ile",
      "is inde",
      "oy n",
      "bun un",
      "ın ır",
      "faz la",
      "ve t",
      "s ar",
      "ş ir",
      "de l",
      "in c",
      "s iyon",
      "p e",
      "çık ar",
      "ol mak",
      "ka bul",
      "h il",
      "it al",
      "mu z",
      "lı ğ",
      "küç ük",
      "ek im",
      "m in",
      "d ör",
      "ilm iş",
      "ingil iz",
      "yar dı",
      "müz ik",
      "hal k",
      "p a",
      "ab d",
      "doğ u",
      "n ik",
      "da ğ",
      "o cak",
      "bil im",
      "g ı",
      "v al",
      "ard ından",
      "k ül",
      "b ey",
      "mayı s",
      "d on",
      "s ev",
      "ün e",
      "g üç",
      "ken di",
      "s am",
      "osman lı",
      "kad ın",
      "oğ lu",
      "yak laş",
      "s es",
      "fark lı",
      "gr am",
      "el ik",
      "oyun cu",
      "öğ ren",
      "lu ğu",
      "s iz",
      "yüz yıl",
      "kas ım",
      "al et",
      "h en",
      "il inin",
      "es inin",
      "li g",
      "l ül",
      "m on",
      "şeh r",
      "har ek",
      "mas ını",
      "k em",
      "al ın",
      "im par",
      "impar ator",
      "m ey",
      "nüf us",
      "ğ ü",
      "ar alık",
      "par t",
      "il iş",
      "eğit im",
      "sis tem",
      "bel edi",
      "d ok",
      "şt ür",
      "ıl mış",
      "ğ ini",
      "kı z",
      "ba h",
      "yak ın",
      "n o",
      "l ak",
      "g ar",
      "doğ ru",
      "m em",
      "i c",
      "ey lül",
      "s ını",
      "p la",
      "ır ak",
      "du ğu",
      "geç ir",
      "ha f",
      "haz iran",
      "şt i",
      "t ü",
      "s o",
      "malar ı",
      "nis an",
      "z or",
      "tem muz",
      "yardı m",
      "l in",
      "us tos",
      "g eri",
      "ağ ustos",
      "k ayn",
      "ar ka",
      "fin al",
      "ün ün",
      "olu p",
      "çocu k",
      "y un",
      "çeşit li",
      "h ay",
      "iz m",
      "u ç",
      "e f",
      "t ut",
      "s ınır",
      "le y",
      "b oyun",
      "es er",
      "sa de",
      "öl üm",
      "savaş ı",
      "ki şi",
      "merkez i",
      "sır asında",
      "m ed",
      "b eş",
      "amer ika",
      "bil g",
      "bat ı",
      "on un",
      "t ay",
      "düş ün",
      "h r",
      "el ek",
      "c oğraf",
      "kı sa",
      "kayn ak",
      "r ar",
      "gör ül",
      "d de",
      "edil miştir",
      "g ol",
      "k ü",
      "h iz",
      "bulun maktadır",
      "l ük",
      "ler den",
      "la s",
      "g it",
      "tan ı",
      "k im",
      "iler in",
      "yıl ları",
      "k arak",
      "s te",
      "orta ya",
      "sade ce",
      "s os",
      "p lan",
      "ara ştır",
      "en er",
      "şu bat",
      "an d",
      "p at",
      "j o",
      "k el",
      "gel iş",
      "değ er",
      "yıl dı",
      "ta şı",
      "birleş ik",
      "nüf usu",
      "b al",
      "gel iştir",
      "tama m",
      "harek et",
      "iliş k",
      "r ek",
      "ben z",
      "par ç",
      "yaklaş ık",
      "inde ki",
      "mahal le",
      "kül tür",
      "ro man",
      "c in",
      "b oy",
      "ku v",
      "pro gram",
      "de st",
      "bak an",
      "yar ı",
      "gen ç",
      "top l",
      "el en",
      "kar ar",
      "lar la",
      "başkan ı",
      "edil di",
      "g em",
      "sal dır",
      "üm üz",
      "len en",
      "yıl ı",
      "fak at",
      "boyun ca",
      "s ü",
      "ken t",
      "iy eti",
      "b ek",
      "on u",
      "m ik",
      "edil en",
      "seç im",
      "si ya",
      "kur ulu",
      "yeni den",
      "g ön",
      "oy na",
      "hak k",
      "hiz met",
      "m ev",
      "e c",
      "ulus lar",
      "y ok",
      "yer leş",
      "at an",
      "mü ştür",
      "zaman da",
      "neden iyle",
      "k e",
      "ra ğ",
      "kı s",
      "dör t",
      "ul an",
      "r at",
      "o g",
      "ç ağ",
      "böl ge",
      "il ir",
      "on om",
      "bir liği",
      "gün ümüz",
      "an t",
      "or i",
      "es ini",
      "o d",
      "s ak",
      "öl ç",
      "tarih i",
      "ba ğı",
      "uzak lık",
      "p ek",
      "dest ek",
      "s ur",
      "yay ım",
      "sağ la",
      "gör ün",
      "r ı",
      "gen iş",
      "ma z",
      "uluslar arası",
      "an lam",
      "ıl ması",
      "uy g",
      "kullan ı",
      "ü c",
      "lar dır",
      "on ya",
      "haz ır",
      "ha yat",
      "coğraf ya",
      "y o",
      "özel likle",
      "ta m",
      "uy gu",
      "i on",
      "l ist",
      "tem sil",
      "tan ım",
      "n or",
      "alman ya",
      "um u",
      "kuv vet",
      "son r",
      "is te",
      "sonu ç",
      "baş arı",
      "a it",
      "b ırak",
      "d is",
      "top lam",
      "w e",
      "yük sel",
      "yaz ar",
      "l im",
      "genel likle",
      "us unda",
      "s ine",
      "h ız",
      "ba b",
      "b or",
      "q u",
      "pro fes",
      "is inin",
      "alt ında",
      "bulun ur",
      "fran sız",
      "ğ in",
      "ün den",
      "ön c",
      "lan mıştır",
      "erk ek",
      "e p",
      "du y",
      "ya sa",
      "z a",
      "g iy",
      "ey alet",
      "üs ü",
      "da v",
      "h ol",
      "yun an",
      "yer ine",
      "em e",
      "ç in",
      "ti f",
      "sos yal",
      "i a",
      "baş ar",
      "k ür",
      "n es",
      "yönet im",
      "is ini",
      "ilg ili",
      "değ il",
      "yaptı ğı",
      "da k",
      "al tı",
      "dol ayı",
      "s em",
      "t h",
      "şir ket",
      "da hil",
      "ay an",
      "le me",
      "s ch",
      "at ı",
      "ha va",
      "t ra",
      "s ov",
      "rağ men",
      "k ları",
      "gaz et",
      "n u",
      "ol ay",
      "y ür",
      "y i",
      "de ği",
      "bur ada",
      "ko mu",
      "a c",
      "an kara",
      "gerçek leştir",
      "iy or",
      "ok ul",
      "tek rar",
      "çık tı",
      "tem el",
      "j ap",
      "öğ ret",
      "ç alı",
      "p et",
      "fran sa",
      "in şa",
      "n et",
      "ku p",
      "baş ka",
      "da ş",
      "öl dür",
      "ro s",
      "b et",
      "g in",
      "h ük",
      "is yon",
      "ol ması",
      "ler le",
      "or gan",
      "ka v",
      "j i",
      "y alı",
      "s tan",
      "k ayı",
      "ulus al",
      "lu ğ",
      "elek tr",
      "en t",
      "al mıştır",
      "çev r",
      "ol ur",
      "ne w",
      "kar de",
      "b eri",
      "d ra",
      "a il",
      "kazan dı",
      "an laş",
      "sır a",
      "b üt",
      "oloj i",
      "sov yet",
      "el de",
      "m us",
      "on a",
      "mil yon",
      "c am",
      "ğ ında",
      "u laş",
      "uzaklık tadır",
      "tr ans",
      "i dar",
      "gön der",
      "k op",
      "kariy eri",
      "top rak",
      "ma h",
      "yan ı",
      "is ine",
      "tarih çe",
      "s im",
      "g ın",
      "ilm esi",
      "z en",
      "gü ven",
      "ıl maktadır",
      "f ik",
      "al a",
      "karak ter",
      "yap ım",
      "mil let",
      "n er",
      "kita p",
      "g h",
      "sını f",
      "dev r",
      "k ut",
      "ıl ım",
      "s ul",
      "tas ar",
      "ar et",
      "kar ş",
      "n ok",
      "h iç",
      "son unda",
      "futbol cu",
      "rus ya",
      "n ek",
      "belir t",
      "k tan",
      "gel er",
      "y dı",
      "amerik an",
      "ro ma",
      "k eş",
      "kariy er",
      "p op",
      "r am",
      "ku ş",
      "ask er",
      "p u",
      "s ol",
      "de f",
      "ağ ır",
      "tr ol",
      "ara p",
      "yaz ı",
      "em ek",
      "ar en",
      "ç if",
      "özel lik",
      "tek nik",
      "as t",
      "bağı m",
      "i di",
      "u ş",
      "ev iz",
      "ş ey",
      "h in",
      "l ek",
      "p aşa",
      "sır ada",
      "deği ştir",
      "tak ımı",
      "p s",
      "bir kaç",
      "bilin en",
      "i bi",
      "sahip tir",
      "sı k",
      "me c",
      "hakk ında",
      "l es",
      "s ında",
      "y ordu",
      "s öyle",
      "f on",
      "pol it",
      "çalış malar",
      "gru bu",
      "s öy",
      "un dan",
      "hük üm",
      "itib arı",
      "av us",
      "b iz",
      "mü ca",
      "gir iş",
      "v il",
      "alt ın",
      "if ade",
      "e ce",
      "bağ lan",
      "kullan ılan",
      "al ır",
      "n at",
      "bab ası",
      "yaş ında",
      "üç ün",
      "se be",
      "adı yla",
      "ma t",
      "u ğ",
      "h ir",
      "is pan",
      "an n",
      "ti p",
      "kul üp",
      "sav un",
      "ab er",
      "mı ştı",
      "in ce",
      "im e",
      "ulu k",
      "c er",
      "gel ir",
      "etti ği",
      "ü b",
      "b öyle",
      "w il",
      "değiş ik",
      "aşa ğı",
      "l on",
      "ç ap",
      "arasında ki",
      "s ey",
      "t esi",
      "in a",
      "han e",
      "la ştır",
      "has t",
      "yap an",
      "l y",
      "cı sı",
      "oluş an",
      "ti car",
      "e cek",
      "y ine",
      "ma tik",
      "sil ah",
      "ber aber",
      "r ed",
      "i ci",
      "kita b",
      "d iler",
      "ya tı",
      "s ta",
      "r y",
      "y olu",
      "yönet men",
      "lar ak",
      "c ılı",
      "j an",
      "sanat çı",
      "ele ştir",
      "dem ir",
      "büt ün",
      "ış ı",
      "m eler",
      "ç ar",
      "cumhur iyeti",
      "ç iz",
      "r ik",
      "çık an",
      "v ur",
      "g or",
      "te p",
      "diğ ini",
      "sezon unda",
      "m ot",
      "k alan",
      "mahalle dir",
      "şehr in",
      "konu ş",
      "lan d",
      "k am",
      "te mi",
      "yıldı z",
      "ver di",
      "et miştir",
      "et mek",
      "g öl",
      "in an",
      "h n",
      "kul üb",
      "kon trol",
      "üçün cü",
      "ler dir",
      "n um",
      "bağım sız",
      "z i",
      "c usu",
      "ti yat",
      "al maktadır",
      "pro j",
      "iy di",
      "kup ası",
      "yap mıştır",
      "m alı",
      "k ir",
      "kur u",
      "c en",
      "ülk eler",
      "sa at",
      "eviz yon",
      "is ti",
      "ör ne",
      "çif t",
      "li gi",
      "k in",
      "j a",
      "ter e",
      "um lu",
      "b iç",
      "c or",
      "man ın",
      "ya hu",
      "tan ın",
      "itib aren",
      "de le",
      "ad ını",
      "bo z",
      "ek onom",
      "merkez ine",
      "uygu la",
      "c on",
      "ak ade",
      "kor u",
      "t at",
      "an da",
      "edil ir",
      "be yaz",
      "da yan",
      "len di",
      "op er",
      "as ıl",
      "kal dı",
      "ş ah",
      "yon el",
      "ün lü",
      "mas ının",
      "c iler",
      "m it",
      "an ın",
      "vi de",
      "mo del",
      "profes yonel",
      "f e",
      "dönem inde",
      "bun a",
      "üy esi",
      "tel evizyon",
      "ad landır",
      "amerik alı",
      "an ad",
      "olma yan",
      "b iy",
      "s l",
      "sonu cu",
      "albüm ü",
      "f iz",
      "rak i",
      "devlet leri",
      "im ar",
      "ov a",
      "gel di",
      "çoğ u",
      "fil mi",
      "asyon u",
      "al e",
      "kayı t",
      "p h",
      "c ez",
      "beledi ye",
      "f el",
      "ver ilen",
      "ödül ü",
      "f ır",
      "par ti",
      "y oğ",
      "ama cı",
      "an an",
      "iz e",
      "gör üş",
      "s p",
      "son raki",
      "oloj ik",
      "k li",
      "benz er",
      "ıl dığı",
      "saldır ı",
      "ca ğı",
      "mas ında",
      "tiyat ro",
      "l or",
      "gö k",
      "dış ında",
      "c el",
      "c ut",
      "iy an",
      "me di",
      "m or",
      "han gi",
      "po z",
      "mey dan",
      "ital ya",
      "dy o",
      "ingil tere",
      "part isi",
      "id di",
      "la bilir",
      "ma dde",
      "ü ler",
      "hay van",
      "de t",
      "iy ordu",
      "ma da",
      "şek l",
      "ur t",
      "p it",
      "la yan",
      "sür dür",
      "ist ik",
      "d ük",
      "ı t",
      "p en",
      "ask eri",
      "as ına",
      "tür ü",
      "ıl ma",
      "liğ ini",
      "anad olu",
      "al dığı",
      "ör nek",
      "f et",
      "ay et",
      "kar ı",
      "es inden",
      "s h",
      "at tı",
      "k er",
      "i de",
      "k oy",
      "yoğ un",
      "jo hn",
      "z e",
      "itibarı yla",
      "a dan",
      "or tak",
      "mi şti",
      "e ur",
      "bir bir",
      "es el",
      "tan rı",
      "y um",
      "b on",
      "bu gün",
      "lan mış",
      "da ğı",
      "dönem de",
      "k üt",
      "beledi y",
      "w in",
      "fa al",
      "for m",
      "ç u",
      "s c",
      "da ir",
      "ma ğ",
      "s k",
      "er men",
      "ada m",
      "oldu k",
      "bir inci",
      "fak ül",
      "a ya",
      "çalı ştı",
      "el em",
      "o z",
      "mu t",
      "im z",
      "günümüz de",
      "s uz",
      "mev cut",
      "ev i",
      "ilç e",
      "yer el",
      "de k",
      "lan da",
      "alan ı",
      "mü ş",
      "ay ak",
      "ülk e",
      "topl um",
      "ler iyle",
      "ve ç",
      "yay gın",
      "t y",
      "içer isinde",
      "mi c",
      "kat ıldı",
      "ıs ında",
      "ç öz",
      "b l",
      "yıl larında",
      "f eder",
      "n it",
      "hem en",
      "os u",
      "a bilir",
      "oyna dı",
      "g il",
      "tek i",
      "r ika",
      "ordu su",
      "üm ü",
      "on e",
      "lan ır",
      "ması yla",
      "ok u",
      "or t",
      "p az",
      "der g",
      "trans fer",
      "mas ından",
      "biç im",
      "bes t",
      "c om",
      "hu ku",
      "r is",
      "geç ti",
      "sis temi",
      "le yen",
      "mot or",
      "h is",
      "m esine",
      "si yas",
      "böl geler",
      "s eri",
      "kullan ılır",
      "öl dü",
      "t ık",
      "ede bi",
      "isim li",
      "ver en",
      "su ç",
      "lü ğ",
      "imparator luğu",
      "f at",
      "şt u",
      "müca dele",
      "etk in",
      "gö ç",
      "ada y",
      "üm an",
      "faal iyet",
      "ür ün",
      "n den",
      "dir ek",
      "ış ık",
      "k ın",
      "şt a",
      "m imar",
      "say ım",
      "mo der",
      "araştır ma",
      "ay ında",
      "c isi",
      "v ol",
      "m el",
      "res mi",
      "bölüm ü",
      "la ştı",
      "m eyi",
      "h it",
      "örne ğin",
      "v ak",
      "e bilir",
      "t im",
      "ş im",
      "ha yatı",
      "şeh ri",
      "m os",
      "mı sır",
      "yapı mı",
      "geç en",
      "ay ar",
      "y ık",
      "siya si",
      "ch i",
      "lı ğını",
      "kurul an",
      "ara ç",
      "sul tan",
      "d r",
      "böyle ce",
      "me h",
      "per for",
      "siyas et",
      "ları yla",
      "n ız",
      "yan ın",
      "mak ta",
      "mes ini",
      "an i",
      "bulun du",
      "kı yı",
      "yal nız",
      "ili ği",
      "moder n",
      "g raf",
      "çoğ un",
      "kı sı",
      "c ol",
      "doğ du",
      "ti v",
      "kay b",
      "eler in",
      "il et",
      "az er",
      "bulun duğu",
      "u p",
      "köy dür",
      "er ken",
      "en i",
      "j e",
      "perfor man",
      "ra h",
      "başkan lığı",
      "f ı",
      "z ar",
      "bölg esi",
      "p as",
      "kal dır",
      "dön üş",
      "ama ç",
      "m ir",
      "kur t",
      "c ılık",
      "alar ında",
      "m ur",
      "ül dü",
      "futbolcu dur",
      "gelen ek",
      "g iz",
      "da m",
      "g üt",
      "me den",
      "ken in",
      "mü dür",
      "iş lem",
      "h ey",
      "g re",
      "gün ü",
      "a cak",
      "parç ası",
      "ha v",
      "yaş ayan",
      "ot o",
      "et ik",
      "dok tor",
      "h es",
      "st at",
      "sonu c",
      "l it",
      "sı yla",
      "ingiliz ce",
      "for ma",
      "dik kat",
      "yıl lık",
      "m is",
      "g ez",
      "len miştir",
      "kom ün",
      "te or",
      "l isi",
      "v ir",
      "dı ğını",
      "yıl ından",
      "ile bilir",
      "biri dir",
      "tr al",
      "f ir",
      "bit ir",
      "te ş",
      "tak i",
      "sı cak",
      "sah ibi",
      "w a",
      "s oy",
      "ma dan",
      "her hangi",
      "am ı",
      "tek n",
      "bay can",
      "yıl larda",
      "ş an",
      "millet ve",
      "azer baycan",
      "as ını",
      "diz i",
      "bur g",
      "başar ılı",
      "baş lan",
      "ken ti",
      "ul du",
      "b unu",
      "do w",
      "şi ir",
      "sezon u",
      "par is",
      "de s",
      "st r",
      "d s",
      "p ay",
      "ber t",
      "keş f",
      "t v",
      "yan i",
      "kö ken",
      "di ye",
      "ha ber",
      "n az",
      "a u",
      "af rika",
      "cumhur iyet",
      "ma y",
      "alar ın",
      "iz in",
      "fiz ik",
      "c m",
      "ç at",
      "is mi",
      "iş le",
      "la v",
      "maç ta",
      "ar ay",
      "met re",
      "ra il",
      "kon usunda",
      "g üz",
      "yan ında",
      "ül kenin",
      "tes pit",
      "ör güt",
      "lü ğü",
      "kal e",
      "var dı",
      "vide o",
      "ok ulu",
      "k amp",
      "e b",
      "il ine",
      "bil gi",
      "tur nu",
      "s ing",
      "h üc",
      "a j",
      "er al",
      "bil dir",
      "te h",
      "düzen lenen",
      "len ir",
      "la t",
      "ola bilir",
      "j en",
      "uyg un",
      "yor k",
      "il an",
      "iş leri",
      "iş let",
      "ın tı",
      "c as",
      "mez un",
      "cı lar",
      "f o",
      "is m",
      "en gel",
      "yerleş im",
      "şekl inde",
      "tay dı",
      "a ile",
      "olduk ça",
      "b alık",
      "ok rat",
      "polit ik",
      "aç ı",
      "yür üt",
      "m y",
      "hiç bir",
      "ya ğ",
      "üret im",
      "sayı da",
      "kon ser",
      "es iyle",
      "sü per",
      "ay d",
      "tar t",
      "sonr asında",
      "li am",
      "kil is",
      "m ö",
      "ca ğını",
      "iler e",
      "bölg esinde",
      "ol im",
      "yor um",
      "ğ ın",
      "t ok",
      "ma dal",
      "hal e",
      "başla yan",
      "köy ün",
      "biz ans",
      "b ro",
      "d ö",
      "kan al",
      "der s",
      "ön cek",
      "n am",
      "si te",
      "ce ği",
      "da vi",
      "hal ine",
      "at eş",
      "eder ek",
      "baş ına",
      "is rail",
      "gir di",
      "cılı ğı",
      "pi yasa",
      "ası yla",
      "la mak",
      "elektr ik",
      "z ir",
      "den ey",
      "jap on",
      "bak anı",
      "müz i",
      "f ab",
      "f ot",
      "is lam",
      "iş gal",
      "gün eş",
      "güç lü",
      "yıl ına",
      "bakan lığı",
      "et mektedir",
      "t ro",
      "se fer",
      "ek li",
      "ya ban",
      "s ına",
      "yaşam ı",
      "öncek i",
      "güz el",
      "anlam ına",
      "ekonom ik",
      "v at",
      "kız ıl",
      "iler ek",
      "z on",
      "yüzyıl da",
      "j in",
      "doğ al",
      "h ri",
      "ser best",
      "gi der",
      "ey en",
      "as ya",
      "ra d",
      "başlan gı",
      "ren k",
      "başla mıştır",
      "bilg is",
      "ital yan",
      "le mek",
      "sor un",
      "par ça",
      "a bil",
      "u yar",
      "li der",
      "ade t",
      "düş ük",
      "w or",
      "y di",
      "y ör",
      "p ren",
      "m m",
      "huku k",
      "iler ini",
      "ç ün",
      "ya v",
      "ka ya",
      "om o",
      "ed ilmiş",
      "ik en",
      "il a",
      "el l",
      "bağlan tı",
      "kurulu ş",
      "fakül tesi",
      "yön tem",
      "ab ile",
      "çalış an",
      "gal ak",
      "yan a",
      "çün kü",
      "v as",
      "is a",
      "ha p",
      "ğ ine",
      "k ış",
      "tart ış",
      "baş ında",
      "türk çe",
      "değil dir",
      "sonuc unda",
      "bas ket",
      "ti ya",
      "la mıştır",
      "ed ilm",
      "söz leş",
      "ispan ya",
      "mu har",
      "haf ta",
      "m ol",
      "kon um",
      "it an",
      "karde ş",
      "g us",
      "karşı laş",
      "kral lık",
      "om et",
      "mü sl",
      "ticar et",
      "direk tör",
      "amacı yla",
      "in ç",
      "en di",
      "mü hen",
      "karde şi",
      "ı p",
      "anla t",
      "ğ ına",
      "diğ inde",
      "gerçek leş",
      "t s",
      "la h",
      "kı zı",
      "sine ma",
      "ara ya",
      "ch ar",
      "poz isyon",
      "st it",
      "c il",
      "olim pi",
      "mu h",
      "dün yanın",
      "yar at",
      "ma d",
      "ya sal",
      "film in",
      "kur um",
      "z em",
      "y arak",
      "geç er",
      "st ü",
      "or man",
      "b la",
      "n ı",
      "kap sam",
      "n an",
      "sah n",
      "baş lar",
      "jap onya",
      "w o",
      "can landır",
      "ğ a",
      "un d",
      "o da",
      "kuvvet leri",
      "iş im",
      "c al",
      "n ak",
      "in dir",
      "g ül",
      "yardım cı",
      "s as",
      "çalış maları",
      "ses lendir",
      "ro ck",
      "c es",
      "ol muş",
      "nok t",
      "izm ir",
      "ist iyan",
      "as it",
      "gru bun",
      "v eri",
      "doğ an",
      "p ap",
      "eler inin",
      "z iy",
      "le di",
      "eler inde",
      "f f",
      "as tr",
      "kon usu",
      "müsl üman",
      "or tal",
      "lan ma",
      "es t",
      "meydan a",
      "baş ı",
      "uz ay",
      "if or",
      "üy le",
      "taş ın",
      "g at",
      "tama men",
      "i o",
      "n dan",
      "ce ğini",
      "met al",
      "ri ch",
      "mah kem",
      "bir im",
      "avus tur",
      "par a",
      "ıı ı",
      "sayı sı",
      "yayın lanan",
      "ver ir",
      "dü ğ",
      "s ının",
      "idar i",
      "la dığı",
      "sağ lık",
      "bilgis ayar",
      "s oğ",
      "w i",
      "res im",
      "si dir",
      "yalnız ca",
      "esi dir",
      "bo ş",
      "mak taydı",
      "mar k",
      "k ili",
      "ö m",
      "son a",
      "in ter",
      "sen ar",
      "y eş",
      "isi on",
      "g am",
      "yön ünde",
      "olimpi yat",
      "d or",
      "g ran",
      "seç ildi",
      "ka f",
      "yap ıldı",
      "ay ır",
      "tar ım",
      "şampiyon ası",
      "kariyer ine",
      "don an",
      "v atan",
      "ola cak",
      "k las",
      "l ilik",
      "b oğ",
      "c uluk",
      "bilin ir",
      "boy ut",
      "eler de",
      "bah çe",
      "ne hri",
      "arka daş",
      "göz lem",
      "s ik",
      "bul gar",
      "ç ak",
      "çalış ma",
      "k eti",
      "lığ ına",
      "stan dar",
      "alar da",
      "i te",
      "h or",
      "yarış ması",
      "devlet i",
      "he def",
      "un van",
      "kav ram",
      "zor unda",
      "piyasa ya",
      "şt ü",
      "çev ir",
      "tasar ım",
      "iler ine",
      "içer en",
      "ek ip",
      "ter c",
      "kel im",
      "şarkı cı",
      "üzer inden",
      "ç an",
      "b is",
      "mik tar",
      "le şti",
      "liğ inde",
      "uyg ulan",
      "iddi a",
      "sebe p",
      "edebi yat",
      "il mektedir",
      "o mi",
      "k ün",
      "kurul du",
      "t ük",
      "kıs m",
      "ma te",
      "lon dra",
      "bun lar",
      "der ece",
      "l os",
      "basket bol",
      "h ip",
      "öz gür",
      "kur du",
      "kend isine",
      "kurul muştur",
      "hız lı",
      "li dir",
      "neden le",
      "çar p",
      "madal ya",
      "uç ak",
      "t iler",
      "b ri",
      "al arak",
      "ın ca",
      "da şı",
      "öğret men",
      "an tik",
      "paz ar",
      "lar dı",
      "ener ji",
      "avus tral",
      "wil liam",
      "ko ş",
      "yayın landı",
      "şir keti",
      "p ak",
      "üniver site",
      "hr istiyan",
      "mı zı",
      "u cu",
      "gal at",
      "gen eral",
      "top lan",
      "sonr ası",
      "et miş",
      "c ık",
      "pop üler",
      "ta v",
      "mus ta",
      "gelenek sel",
      "mes iyle",
      "y ken",
      "organ iz",
      "is veç",
      "kend isi",
      "kıs mı",
      "ta j",
      "s y",
      "it y",
      "kat ı",
      "ya yıl",
      "an al",
      "ser g",
      "mühen dis",
      "d istan",
      "mez ar",
      "fel se",
      "oluş ur",
      "etk il",
      "başla t",
      "ber g",
      "yet er",
      "dir en",
      "y urt",
      "ziy aret",
      "dü ğü",
      "j am",
      "k üm",
      "kullan ım",
      "or an",
      "ma car",
      "di p",
      "tr en",
      "art ık",
      "ön er",
      "as ının",
      "c em",
      "d eri",
      "nor mal",
      "te dir",
      "geç miş",
      "n ot",
      "ti on",
      "te pe",
      "kr alı",
      "in t",
      "k um",
      "maç ı",
      "kol ay",
      "ğ e",
      "bu z",
      "yıldı zı",
      "ti ği",
      "kö pr",
      "g on",
      "çık ış",
      "dav ran",
      "g c",
      "j u",
      "s arı",
      "b b",
      "aşağı daki",
      "h id",
      "sev iy",
      "en stit",
      "an gel",
      "eyalet inde",
      "r on",
      "can lı",
      "yap mış",
      "de fa",
      "kat kı",
      "len miş",
      "em i",
      "g üm",
      "ver siyon",
      "sar ay",
      "baş kenti",
      "s unu",
      "ver ildi",
      "bil en",
      "p il",
      "w al",
      "ayd ın",
      "cam i",
      "am ak",
      "tek li",
      "değer lendir",
      "maç ında",
      "ol masına",
      "düz ey",
      "dönem i",
      "isi dir",
      "komu tan",
      "ölç ü",
      "yaz arı",
      "r um",
      "ti pi",
      "öğret im",
      "dör dün",
      "pu an",
      "kay na",
      "p al",
      "pol is",
      "yahu di",
      "kö tü",
      "mek an",
      "por tek",
      "portek iz",
      "ban k",
      "ta ban",
      "t ele",
      "ıs ından",
      "dem okrat",
      "dön ü",
      "yüzyıl ın",
      "i an",
      "t un",
      "ye di",
      "sah ne",
      "h el",
      "c at",
      "te z",
      "ma dı",
      "sek iz",
      "is el",
      "kır mızı",
      "f ener",
      "elektr on",
      "s et",
      "bir ey",
      "ver diği",
      "yap ar",
      "ak tif",
      "g un",
      "la cak",
      "sur iye",
      "alt ına",
      "ta p",
      "sat ış",
      "duy ur",
      "tı p",
      "bunun la",
      "r as",
      "sing le",
      "ge or",
      "avustur ya",
      "musta fa",
      "dik leri",
      "ı sı",
      "kam u",
      "yaban cı",
      "bölge de",
      "tak ip",
      "ül en",
      "kor e",
      "ş en",
      "tes t",
      "m üm",
      "sayım ına",
      "çat ış",
      "dik ten",
      "eğ er",
      "kitab ı",
      "ol sa",
      "kazan an",
      "sat ın",
      "lis ans",
      "m eleri",
      "di ş",
      "pla y",
      "üy e",
      "e j",
      "ih tiya",
      "fot oğraf",
      "il im",
      "uğ ra",
      "f u",
      "mec lis",
      "meh met",
      "oyun u",
      "s iy",
      "co un",
      "bar ış",
      "mey en",
      "la yı",
      "san ay",
      "aş ır",
      "yet en",
      "ar az",
      "çoğun luk",
      "ağ aç",
      "ra dyo",
      "sovyet ler",
      "d os",
      "güven lik",
      "dow s",
      "bas ın",
      "er z",
      "edil mektedir",
      "y eri",
      "der ec",
      "y eti",
      "ann esi",
      "yap ılmıştır",
      "eler ini",
      "şarkı sı",
      "lan ması",
      "kat e",
      "kur tar",
      "yüz ey",
      "f en",
      "alan ında",
      "hes ap",
      "hr aman",
      "ğ inde",
      "cin sel",
      "as aray",
      "ci haz",
      "du var",
      "a ğı",
      "a ba",
      "galat asaray",
      "f am",
      "ifor ni",
      "n gc",
      "ad ına",
      "v ı",
      "iç i",
      "yıl ın",
      "y se",
      "galak sidir",
      "d ili",
      "ka hraman",
      "kend ini",
      "ba bas",
      "es ir",
      "dı şı",
      "karşı sında",
      "sta dy",
      "u e",
      "b om",
      "zen gin",
      "dördün cü",
      "yıl ının",
      "bun ların",
      "w ar",
      "ispan yol",
      "ve l",
      "eur ov",
      "içer ir",
      "win dows",
      "at ür",
      "b lo",
      "şehir dir",
      "ş un",
      "eğit imi",
      "dön dü",
      "tanı t",
      "em ir",
      "avustral ya",
      "belir li",
      "tı ğı",
      "yaz dı",
      "klas ik",
      "ba zen",
      "yeş il",
      "eurov ision",
      "la men",
      "f an",
      "yön elik",
      "yunan istan",
      "kan ada",
      "dünya ya",
      "og raf",
      "yön eti",
      "par k",
      "e ği",
      "im ini",
      "kat ılım",
      "ant laş",
      "pol onya",
      "sür ekli",
      "bil mektedir",
      "em in",
      "il ya",
      "doğ usunda",
      "la tin",
      "etk ili",
      "kes in",
      "alın dı",
      "ci var",
      "tarih li",
      "ulu ğu",
      "man ı",
      "p t",
      "v az",
      "yok tur",
      "k alı",
      "z er",
      "savun ma",
      "da y",
      "iler inin",
      "şi dde",
      "ü le",
      "ori jin",
      "kat al",
      "ermen i",
      "milletve kili",
      "gu e",
      "hast alık",
      "alar ının",
      "say esinde",
      "ayr ıldı",
      "olo g",
      "başlangı ç",
      "karş ılık",
      "l ılık",
      "müm kün",
      "hak im",
      "alar ını",
      "c ev",
      "n as",
      "v ik",
      "mate matik",
      "m c",
      "f c",
      "e x",
      "yer li",
      "eler e",
      "mahal l",
      "r ay",
      "bile cek",
      "ğ ından",
      "yaz dığı",
      "ko ç",
      "kı br",
      "imz al",
      "görün tü",
      "ödül leri",
      "hal inde",
      "ç uk",
      "ıl maya",
      "kür t",
      "hane dan",
      "bilim sel",
      "kıbr ıs",
      "gazet e",
      "değişik lik",
      "iş i",
      "an g",
      "siyaset çi",
      "fener bahçe",
      "kiş inin",
      "v iç",
      "v is",
      "ek siyon",
      "es ter",
      "stü dyo",
      "he p",
      "k it",
      "of f",
      "albüm ün",
      "tamam ladı",
      "b os",
      "ır lar",
      "len in",
      "hin distan",
      "göster ir",
      "etk isi",
      "der in",
      "sav a",
      "kan un",
      "par lamen",
      "tah min",
      "tut uk",
      "siya h",
      "ed ik",
      "üst ü",
      "kulüb ü",
      "hol landa",
      "di ya",
      "w n",
      "el ç",
      "üzerinde ki",
      "ah met",
      "has tan",
      "br ez",
      "iz i",
      "bak ım",
      "yıl lar",
      "ilç esinde",
      "oyun cusu",
      "yüz ölç",
      "liğ e",
      "eş i",
      "h on",
      "standar t",
      "ç er",
      "br itan",
      "tra b",
      "ilç enin",
      "on omi",
      "de li",
      "ma c",
      "yap mak",
      "h ır",
      "ğ unu",
      "i e",
      "doğ um",
      "trab zon",
      "ül ü",
      "ot ur",
      "p ir",
      "la ması",
      "süre ç",
      "alı ğı",
      "yu karı",
      "sa f",
      "s tar",
      "söyle di",
      "yönet imi",
      "kazan mıştır",
      "k siyon",
      "ölüm ü",
      "yan lı",
      "hat ta",
      "gel miştir",
      "i us",
      "köy ü",
      "ge ce",
      "an ti",
      "n ey",
      "men in",
      "mu ham",
      "mış lardır",
      "c r",
      "baş bakan",
      "kor un",
      "gü cü",
      "inter net",
      "at ion",
      "orijin al",
      "oyn anan",
      "larında ki",
      "performan s",
      "b y",
      "ner ede",
      "w it",
      "b le",
      "görev i",
      "gh t",
      "en dü",
      "e be",
      "orta m",
      "ru h",
      "şt e",
      "la malar",
      "çek im",
      "at a",
      "for d",
      "yer leştir",
      "kurul muş",
      "kiş ilik",
      "kadın lar",
      "ilç esi",
      "yaş a",
      "sa ha",
      "taşı yan",
      "bak ır",
      "il diği",
      "as l",
      "we b",
      "ps ik",
      "bat ısında",
      "sam sun",
      "kullanı cı",
      "g os",
      "m s",
      "ev ren",
      "özellik leri",
      "yaş adı",
      "lık la",
      "lo u",
      "ad ında",
      "durum da",
      "gen in",
      "fon ksiyon",
      "çık mıştır",
      "b ayr",
      "ve s",
      "ce p",
      "ön e",
      "göster en",
      "j os",
      "arka daşı",
      "komün ist",
      "bir leştir",
      "ol ar",
      "doğru dan",
      "in o",
      "astr onom",
      "p lak",
      "ş am",
      "lığ a",
      "sır asıyla",
      "tel es",
      "tar z",
      "ber lin",
      "ar ab",
      "kend isini",
      "ail esi",
      "r ast",
      "yer ek",
      "ar k",
      "al ma",
      "dı k",
      "ortal ama",
      "ot omo",
      "açık ladı",
      "s ki",
      "n asıl",
      "ş ık",
      "kal iforni",
      "bölüm ünde",
      "bun dan",
      "profes ör",
      "devr im",
      "et meye",
      "çoğunluk la",
      "p le",
      "ab et",
      "kaliforni ya",
      "cin s",
      "r ey",
      "ka h",
      "d ini",
      "ed in",
      "a cı",
      "gür cü",
      "baş lı",
      "ha el",
      "me ş",
      "ra por",
      "ev li",
      "kuş at",
      "et raf",
      "sa p",
      "ay na",
      "v ad",
      "ko va",
      "r ul",
      "na v",
      "u kr",
      "durum u",
      "de ste",
      "on ları",
      "c istan",
      "üy eli",
      "terc ih",
      "hüküm dar",
      "hüc r",
      "kullan arak",
      "et tir",
      "sür en",
      "git ti",
      "mec lisi",
      "baş rol",
      "er s",
      "kısı m",
      "g ra",
      "yap maktadır",
      "kuru cu",
      "k ör",
      "tarih leri",
      "giriş im",
      "görül ür",
      "esinde ki",
      "is viç",
      "şa ir",
      "ır ken",
      "ın dır",
      "den k",
      "koş ul",
      "takım yıldızı",
      "ter im",
      "iş aret",
      "el eme",
      "etk ilen",
      "or ada",
      "çocu ğu",
      "is inden",
      "kan ıt",
      "ev r",
      "ter nat",
      "p ik",
      "u c",
      "ok al",
      "kay de",
      "kiş isel",
      "gür cistan",
      "ba ba",
      "sa bit",
      "yüz ünde",
      "ge c",
      "ba şta",
      "çap lı",
      "k ının",
      "dolayı sıyla",
      "s ir",
      "liğ ine",
      "enstit üsü",
      "pa ul",
      "gel mektedir",
      "eler ine",
      "s ok",
      "gü c",
      "ölçü de",
      "p os",
      "kullan ılmaktadır",
      "erk es",
      "beş ik",
      "sağ lar",
      "ter k",
      "h üs",
      "muham med",
      "t eri",
      "il gi",
      "yılında ki",
      "akade m",
      "kas ab",
      "kem al",
      "mil l",
      "ci d",
      "ç iler",
      "yeti ştir",
      "sebe b",
      "turnu v",
      "kon s",
      "i ma",
      "alar ına",
      "n y",
      "kral lığı",
      "güm üş",
      "ılı mı",
      "asl ında",
      "final de",
      "st rat",
      "der ne",
      "şidde t",
      "mic hael",
      "ver ilmiştir",
      "yer ini",
      "önc esi",
      "p res",
      "yar ar",
      "aç ısından",
      "malı dır",
      "b ara",
      "s us",
      "mek tu",
      "it esi",
      "şt an",
      "ue fa",
      "c y",
      "sosyal ist",
      "alar a",
      "ha ç",
      "düşün ül",
      "at ör",
      "ey lem",
      "yaz ılım",
      "ada mı",
      "ste in",
      "söy ler",
      "kar arı",
      "git ar",
      "uy ordu",
      "y emek",
      "keşf edilmiştir",
      "oluştur ur",
      "ticar i",
      "lis esi",
      "etkin lik",
      "c ilik",
      "ce ph",
      "film de",
      "fes tiv",
      "takım ın",
      "ko z",
      "festiv ali",
      "len mesi",
      "v o",
      "ak tar",
      "bel g",
      "ara da",
      "dan s",
      "giz li",
      "ba har",
      "şehr inde",
      "kullan ılmıştır",
      "ben im",
      "y em",
      "ordu s",
      "nok ta",
      "dönem in",
      "ülk ede",
      "j on",
      "ş öyle",
      "w ay",
      "ener j",
      "bel li",
      "muhar eb",
      "yan sı",
      "un g",
      "ka bil",
      "yet iş",
      "et im",
      "si vil",
      "is tem",
      "jam es",
      "sınır ları",
      "pla t",
      "bulun muştur",
      "program ı",
      "al mış",
      "diz isi",
      "w ard",
      "hal a",
      "s üt",
      "hayat ını",
      "ve y",
      "yas ak",
      "görev ini",
      "ja ck",
      "kay det",
      "tan e",
      "teles kop",
      "ur i",
      "kar ma",
      "t asında",
      "bas kı",
      "dağı t",
      "kur al",
      "yüz den",
      "f re",
      "met in",
      "ro bert",
      "müzi ği",
      "of t",
      "bu k",
      "davi d",
      "uz man",
      "yav aş",
      "a g",
      "zar ar",
      "t om",
      "h um",
      "f ri",
      "ı cı",
      "ya cak",
      "kay bet",
      "mal zem",
      "r it",
      "rek or",
      "kö k",
      "üret ilen",
      "z af",
      "ç ö",
      "ik ti",
      "is yan",
      "eler inden",
      "h t",
      "cumhur başkanı",
      "fer ans",
      "vatan daş",
      "küt üp",
      "men t",
      "ch e",
      "n iş",
      "nerede yse",
      "mekte ydi",
      "hal if",
      "fik ir",
      "takım ında",
      "u di",
      "l ing",
      "kut sal",
      "dol ar",
      "bah s",
      "yaşa dığı",
      "ver miştir",
      "boğ az",
      "ıs ına",
      "p ri",
      "beşik taş",
      "bas it",
      "kes im",
      "u ştur",
      "ba z",
      "mos kova",
      "uy or",
      "toplan tı",
      "yayın ladı",
      "qu e",
      "araştır malar",
      "den ir",
      "al eti",
      "ik lim",
      "as h",
      "gir en",
      "a ir",
      "ar nav",
      "ün deki",
      "v in",
      "gün lük",
      "k ılı",
      "coun ty",
      "mevcut tur",
      "alın an",
      "it ir",
      "ı v",
      "ük le",
      "etk ile",
      "be den",
      "mes af",
      "arnav ut",
      "teh lik",
      "da t",
      "bit k",
      "u ma",
      "sağla yan",
      "ak ım",
      "üy eleri",
      "j er",
      "kem er",
      "bur sa",
      "yap ılmış",
      "ılı ğı",
      "iler le",
      "ser t",
      "düşün c",
      "yap ılır",
      "ha c",
      "et me",
      "ç iç",
      "çev re",
      "kültür el",
      "oyna dığı",
      "ur um",
      "ra hat",
      "lan maktadır",
      "ok yan",
      "insan lar",
      "yar gı",
      "dan ış",
      "las yon",
      "olu ştu",
      "tekn oloj",
      "üy or",
      "düş man",
      "yapı sı",
      "lığ ın",
      "wo od",
      "it ik",
      "fizik sel",
      "kap ı",
      "bazı ları",
      "n ün",
      "insan ların",
      "an lar",
      "iş e",
      "ek ran",
      "kil ise",
      "p ey",
      "kuzey inde",
      "gel ecek",
      "ilet işim",
      "on ay",
      "unda ki",
      "ğ inin",
      "u la",
      "ur a",
      "c is",
      "haf if",
      "ma g",
      "iç eri",
      "e gem",
      "n ü",
      "ar e",
      "ed ilmesi",
      "içinde ki",
      "geçir di",
      "u var",
      "at om",
      "lı dır",
      "ikti dar",
      "büy ü",
      "şar kının",
      "bel ç",
      "dip lo",
      "katal og",
      "cez a",
      "iç ine",
      "ar jan",
      "sonra dan",
      "ş er",
      "al mak",
      "t b",
      "sanay i",
      "o dak",
      "kap at",
      "u laştı",
      "sen e",
      "arjan tin",
      "ya ğı",
      "lis te",
      "sek tör",
      "ak deniz",
      "öl müştür",
      "yaşam ak",
      "tör en",
      "al ama",
      "b ı",
      "gö tür",
      "ek onomi",
      "ç ay",
      "çek ir",
      "mes inden",
      "ukr ayna",
      "mı z",
      "sür üm",
      "hey kel",
      "ul ur",
      "mak in",
      "amı ştır",
      "d isi",
      "sor umlu",
      "kullan ımı",
      "bil l",
      "ça ğı",
      "h y",
      "takım ının",
      "kad ro",
      "sınıf landır",
      "koru ma",
      "o b",
      "egem en",
      "ağır lık",
      "ol ik",
      "genel de",
      "kayna ğı",
      "köken li",
      "sel çuk",
      "kend ine",
      "on ların",
      "aşır ı",
      "iler de",
      "silah lı",
      "fı fa",
      "ara cılığı",
      "isviç re",
      "ler ce",
      "z am",
      "ma den",
      "şampiyon u",
      "f t",
      "an ne",
      "oğ ul",
      "it ti",
      "geç iş",
      "le h",
      "bit ki",
      "çap ında",
      "kulüb ünde",
      "c us",
      "belediy esi",
      "britan ya",
      "olma dığı",
      "ist at",
      "med ya",
      "j im",
      "atan dı",
      "alan dı",
      "bilin mektedir",
      "yayım lanan",
      "l d",
      "kom p",
      "yardım cısı",
      "ko d",
      "s ho",
      "an tal",
      "babas ının",
      "uygu lama",
      "or e",
      "baş larında",
      "ın ar",
      "gör dü",
      "göster mektedir",
      "ist en",
      "i g",
      "ölüm ünden",
      "hak kı",
      "l ili",
      "es as",
      "yer de",
      "p hil",
      "yap tır",
      "k os",
      "r ö",
      "kan at",
      "kullan ıldı",
      "pet er",
      "c tor",
      "hen üz",
      "ha val",
      "mağ lu",
      "m oğ",
      "il inde",
      "t ılı",
      "aç tı",
      "di t",
      "la yarak",
      "gerek ti",
      "te d",
      "lı lar",
      "moğ ol",
      "ul muştur",
      "la maya",
      "dönü ştür",
      "b ran",
      "yaş an",
      "sağ ladı",
      "b ür",
      "türk men",
      "davran ış",
      "g ro",
      "us t",
      "an o",
      "res sam",
      "uy du",
      "böl ün",
      "mes lek",
      "si vas",
      "sebeb iyle",
      "fran k",
      "otomo bil",
      "al l",
      "mes inin",
      "l ise",
      "gök yüzünde",
      "hüküm et",
      "v okal",
      "ma vi",
      "tele fon",
      "kilis esi",
      "m ün",
      "re ak",
      "bir inc",
      "lığ ında",
      "oyn an",
      "mem ek",
      "sem bol",
      "len me",
      "z ayı",
      "başarı sız",
      "as ından",
      "c ileri",
      "w er",
      "akadem isi",
      "c ity",
      "kat ılan",
      "alan da",
      "u d",
      "c ası",
      "ul muş",
      "derne ği",
      "gün cel",
      "ing ton",
      "ı ma",
      "endü str",
      "ya de",
      "sağla mak",
      "öz erk",
      "yayım landı",
      "kil omet",
      "zayı f",
      "mak am",
      "oyun ları",
      "teş kil",
      "ak ıl",
      "num ar",
      "ir e",
      "tes lim",
      "brez ilya",
      "ıl mak",
      "ol as",
      "kate gor",
      "f eri",
      "on ur",
      "iş çi",
      "has an",
      "b ra",
      "es eri",
      "is iyle",
      "şar t",
      "k amer",
      "em iştir",
      "gez e",
      "is yen",
      "biçim de",
      "do st",
      "yüksel di",
      "n deki",
      "ch r",
      "sözleş me",
      "b ün",
      "fab rik",
      "gör en",
      "or anı",
      "mil li",
      "nüfus unun",
      "yolu yla",
      "yet ik",
      "ken ar",
      "mic ros",
      "dak ik",
      "bilg iler",
      "rah im",
      "kar t",
      "teleskop la",
      "ch el",
      "fam il",
      "dak ika",
      "z at",
      "c ının",
      "z o",
      "say ılı",
      "miş lerdir",
      "eleştir men",
      "yat ır",
      "an der",
      "ilg ilen",
      "çiz gi",
      "oluş maktadır",
      "macar istan",
      "d ro",
      "ale x",
      "ıl masına",
      "t te",
      "ist asyon",
      "ef endi",
      "met ro",
      "kiş iler",
      "mol ek",
      "müdür lüğü",
      "müz esi",
      "haval im",
      "kal mıştır",
      "yap maya",
      "fransız ca",
      "ak i",
      "on lar",
      "kon stan",
      "for mu",
      "ko v",
      "sü ley",
      "yer e",
      "ar tır",
      "toplam da",
      "far s",
      "list esinde",
      "pay laş",
      "is ter",
      "gür eş",
      "ist in",
      "ağ a",
      "g ur",
      "bes te",
      "süley man",
      "nor veç",
      "arap ça",
      "ey aleti",
      "mu ştu",
      "pro te",
      "ihtiya ç",
      "ik let",
      "oluştu ğu",
      "çalış maya",
      "ğ inden",
      "ti val",
      "l us",
      "ilişk iler",
      "s üz",
      "dış işleri",
      "öldür ül",
      "üc ret",
      "kim yasal",
      "geç mektedir",
      "pren s",
      "c ha",
      "fes tival",
      "mı yla",
      "liğ in",
      "gerek li",
      "oluştur an",
      "sek ret",
      "kaz ak",
      "güney inde",
      "feder asyonu",
      "atür k",
      "la z",
      "uygula malar",
      "bulun ma",
      "at atürk",
      "uç uş",
      "kayb etti",
      "dı lar",
      "tu ğ",
      "kli p",
      "c la",
      "görül en",
      "b ot",
      "t le",
      "soğ uk",
      "bah ç",
      "e bil",
      "pet rol",
      "t uz",
      "ğ ının",
      "olma dığını",
      "dur dur",
      "hal kı",
      "kas aba",
      "mik ro",
      "er tesi",
      "ir landa",
      "civar ında",
      "am i",
      "list esi",
      "b ö",
      "pozisyon unda",
      "ra p",
      "per s",
      "kara deniz",
      "ma x",
      "ik isi",
      "n ar",
      "yıl da",
      "a gue",
      "ada sı",
      "film inde",
      "s ika",
      "bun lardan",
      "ıl masını",
      "geor ge",
      "ri d",
      "harek eti",
      "yüz ünden",
      "bul du",
      "kap asit",
      "n ükle",
      "baş vur",
      "yap tık",
      "polit ika",
      "ol e",
      "kır ım",
      "man n",
      "ik inc",
      "r em",
      "micros oft",
      "v on",
      "ek i",
      "mas yon",
      "istat istik",
      "d om",
      "ya ta",
      "dal g",
      "ru k",
      "göl ü",
      "ılı p",
      "y os",
      "r üt",
      "r uz",
      "eser leri",
      "kar ış",
      "komu tanı",
      "kaf kas",
      "ch er",
      "oper asyon",
      "haf ız",
      "l iler",
      "di yar",
      "var lık",
      "wor ld",
      "tekli f",
      "kons eyi",
      "sıcak lık",
      "zaf er",
      "hap is",
      "tb mm",
      "len diği",
      "r ok",
      "ayn alı",
      "olduğ una",
      "bölg esine",
      "tes is",
      "erkek ler",
      "ver ilir",
      "man as",
      "v iy",
      "seçim leri",
      "aracılığı yla",
      "d un",
      "gi den",
      "sı kı",
      "ol maya",
      "le diği",
      "mill iyet",
      "u el",
      "g as",
      "y el",
      "ne hir",
      "üret imi",
      "ya sı",
      "p in",
      "lar daki",
      "cid di",
      "ism ini",
      "hak ları",
      "n daki",
      "gal ib",
      "char les",
      "ta bak",
      "ev er",
      "m ür",
      "maç ına",
      "uzun luğ",
      "aş k",
      "gerek ir",
      "öğren ci",
      "çöz üm",
      "ir i",
      "tan k",
      "t is",
      "ak ar",
      "li deri",
      "yön el",
      "h ayr",
      "si g",
      "kent inde",
      "getir ildi",
      "h ot",
      "böl genin",
      "olduğ undan",
      "re f",
      "ol abile",
      "b lem",
      "ıl ış",
      "organiz asyon",
      "yüzölç ümü",
      "yap arak",
      "kom isyon",
      "et mesi",
      "yanlı ş",
      "us e",
      "adı m",
      "yaş ar",
      "sahip liği",
      "öm ür",
      "muhareb esi",
      "yan dan",
      "yap rak",
      "müz isyen",
      "beş inci",
      "re al",
      "kal ma",
      "k ing",
      "tr i",
      "yıl dır",
      "karş ın",
      "bo ard",
      "gün de",
      "st al",
      "belç ika",
      "attı ğı",
      "ür eti",
      "h un",
      "mil yar",
      "o u",
      "r ü",
      "bün y",
      "bir az",
      "çan ak",
      "g ot",
      "geniş let",
      "bulgar istan",
      "k us",
      "ven edik",
      "liğ inden",
      "graf ik",
      "har f",
      "kral iyet",
      "imparator luk",
      "ey le",
      "m un",
      "ş ap",
      "bölg esel",
      "ön ünde",
      "sk y",
      "tah t",
      "ama tör",
      "su p",
      "z ır",
      "e g",
      "mek sika",
      "demokrat ik",
      "ad alet",
      "elektron ik",
      "tal ep",
      "ör t",
      "kal p",
      "ion al",
      "milletve kil",
      "önc eleri",
      "söy len",
      "ul lah",
      "ev lilik",
      "ya hat",
      "mak ed",
      "özel liği",
      "neden i",
      "ley ici",
      "b esi",
      "inşa at",
      "di e",
      "erz urum",
      "el ine",
      "ar i",
      "ib rahim",
      "y ir",
      "im li",
      "bir den",
      "se yahat",
      "bal kan",
      "adlandır ılan",
      "konstan tin",
      "mey ve",
      "köpr ü",
      "im iz",
      "işle v",
      "büy üm",
      "t us",
      "hit ler",
      "ç or",
      "ş ik",
      "geç ici",
      "luğ unu",
      "başlangıç ta",
      "e dir",
      "ar ke",
      "tah ta",
      "l s",
      "tem iz",
      "kat olik",
      "ku y",
      "nokt ası",
      "li ber",
      "z ey",
      "der e",
      "i v",
      "başlı ca",
      "te davi",
      "hin t",
      "türk ç",
      "ef san",
      "mü da",
      "f os",
      "ağ an",
      "op ol",
      "bara j",
      "h ı",
      "alar ından",
      "öğren ciler",
      "gaz i",
      "ile cek",
      "geze gen",
      "b olu",
      "kom şu",
      "adan a",
      "er ler",
      "or kes",
      "ak sine",
      "di j",
      "gö v",
      "gem i",
      "sanatçı sı",
      "ho ş",
      "belirt ti",
      "ü cü",
      "angel es",
      "n em",
      "değiş im",
      "geç miştir",
      "topl uluk",
      "manas tır",
      "bar ındır",
      "bla ck",
      "g ay",
      "merkez li",
      "kişi dir",
      "lem esi",
      "dö v",
      "le ye",
      "gerçekleştir ilen",
      "el d",
      "m ini",
      "w at",
      "mü sa",
      "mü tte",
      "kar bon",
      "em r",
      "sezon un",
      "ş if",
      "layı cı",
      "kapsam ında",
      "eler den",
      "lığ ının",
      "kon ya",
      "çer çe",
      "kad ros",
      "karma şık",
      "f as",
      "ç eş",
      "kal ıntı",
      "giy di",
      "f l",
      "sır p",
      "şampiyon luğu",
      "an lık",
      "c d",
      "uz an",
      "kar ay",
      "deniz i",
      "gerek en",
      "hüs ey",
      "et tiler",
      "dok uz",
      "çiz g",
      "çıkar dı",
      "and re",
      "en ter",
      "res tor",
      "genç lik",
      "yaşında yken",
      "ç am",
      "kö ş",
      "ilişk in",
      "v b",
      "yayın lan",
      "la ya",
      "süre c",
      "kür esel",
      "günümüz e",
      "dal ga",
      "h op",
      "yunan ca",
      "dünya da",
      "göster di",
      "kullanı labilir",
      "ta bi",
      "isti h",
      "ı yor",
      "ıs ını",
      "un iver",
      "ev lendi",
      "graf i",
      "çiç ek",
      "takım ına",
      "açık lama",
      "düş ür",
      "et nik",
      "oyn amak",
      "gider ek",
      "d ile",
      "olimpiyat ları",
      "re cor",
      "kol on",
      "ren kli",
      "hat ır",
      "et ki",
      "final e",
      "ed ilebilir",
      "orta dan",
      "el li",
      "söz c",
      "seç ilmiştir",
      "pil ot",
      "kütüp han",
      "diz inin",
      "p on",
      "dij ital",
      "yarış ma",
      "g ri",
      "am ik",
      "son larında",
      "ak ış",
      "mak al",
      "al ış",
      "hız la",
      "gran d",
      "ta ar",
      "başla mış",
      "en f",
      "da e",
      "por t",
      "düzen li",
      "bölg eye",
      "ma il",
      "söz cü",
      "diz isinde",
      "imzal adı",
      "lem eye",
      "antal ya",
      "ş ak",
      "oyn ayan",
      "üyeli ği",
      "tiyatro su",
      "ar alarında",
      "yas ası",
      "am et",
      "en e",
      "kullan an",
      "dü s",
      "ik ili",
      "ver mektedir",
      "hazır lık",
      "ulu ğ",
      "par lak",
      "isti fa",
      "n ba",
      "li ga",
      "toplum sal",
      "ç ab",
      "r ez",
      "je an",
      "br on",
      "nes n",
      "biy ograf",
      "hid ro",
      "sayı mı",
      "ç et",
      "az alt",
      "gerek tir",
      "d ing",
      "pro blem",
      "yönetmen liğini",
      "birbir ine",
      "şehir de",
      "s üs",
      "an tren",
      "çalı ştır",
      "halk ın",
      "s s"
    ]
  }
}